▁ 32911
. 21833
▁the 14329
▁is 13389
[en_XX] 12876
, 12583
▁of 10363
▁in 9615
▁and 7924
s 7471
▁The 4981
▁was 4444
▁a 4203
▁A 3484
▁has 2533
▁by 2368
▁which 2160
▁United 1940
d 1866
▁States 1754
▁from 1633
▁are 1585
▁an 1494
ed 1479
▁where 1472
▁located 1466
▁born 1361
n 1276
▁for 1264
er 1255
▁leader 1156
▁American 1127
▁County 1091
a 1057
▁with 1056
▁to 1044
▁as 1017
▁( 1003
▁) 1001
▁' 992
h 990
e 976
▁part 937
▁on 930
▁New 904
▁Al 897
▁who 887
▁He 878
▁at 869
▁play 850
▁music 849
▁et 833
nic 829
- 801
▁It 799
▁city 770
▁its 731
o 727
▁capital 727
▁Airport 709
S 708
y 679
▁country 658
th 625
▁University 614
▁di 611
way 608
▁Texas 606
▁language 572
▁found 563
C 541
▁also 536
t 535
▁be 529
sh 528
▁U 523
i 519
0.0 511
▁member 508
▁run 506
▁group 505
▁spoke 502
▁die 493
▁played 483
▁club 471
ch 462
al 460
▁FC 459
▁English 455
▁one 453
es 445
▁International 430
▁Washington 415
psis 392
▁B 385
▁per 385
ton 372
▁Alan 372
▁led 370
tive 360
r 356
▁kilometre 354
▁whose 353
▁rock 350
▁length 345
▁genre 343
▁origina 341
▁City 340
▁ground 339
▁Aaron 337
▁e 336
▁groups 333
▁California 331
▁name 327
▁his 319
▁11 316
▁it 316
▁location 309
▁D 308
▁number 303
ia 302
po 302
▁York 302
an 300
▁airport 300
ya 299
▁area 298
▁3 297
▁F 293
▁comes 293
▁national 293
▁metres 291
ly 289
▁Indiana 289
▁served 289
em 286
in 285
▁known 281
▁Air 280
▁level 279
▁In 274
▁operate 274
▁sea 274
▁that 274
▁band 272
ted 270
▁Spain 269
▁US 269
▁above 268
▁Martin 263
▁De 261
▁perform 260
▁African 259
▁'' 258
▁II 257
▁engine 257
▁football 257
p 256
▁Austin 255
▁`` 255
▁he 255
na 253
▁km 253
▁India 252
▁War 252
▁region 252
▁called 251
▁made 246
▁ingredient 245
▁Ba 243
▁S 242
▁Alfred 241
▁Ar 241
▁Georgia 241
▁pilot 241
▁Apollo 240
▁Na 239
▁main 239
▁people 239
/ 237
k 236
▁V 235
▁team 235
▁O 234
▁sing 233
▁Bak 231
▁10 230
▁bacon 229
▁can 228
▁date 228
▁period 228
▁: 227
ing 226
▁President 226
▁ingredients 226
▁1 225
te 224
▁Indonesia 224
▁musical 224
▁Abdul 223
▁NASA 223
▁state 223
▁16 221
square 219
ke 218
son 218
▁Italy 218
▁Aarhus 217
▁Jersey 214
▁serve 213
man 212
▁orbit 212
▁written 212
▁John 210
▁Aleksandr 209
▁manager 209
▁published 209
▁Asian 208
ston 205
▁12 205
▁home 205
ian 204
▁Mexico 204
▁affiliate 203
▁apo 203
▁crew 203
▁N 202
▁blues 202
34 201
▁Andrew 200
▁sauce 200
▁succeed 200
▁associated 199
▁London 197
sio 196
▁Anders 196
▁launch 195
▁Institute 194
▁Party 194
▁White 192
char 190
▁members 190
tes 189
IDA 186
▁built 183
on 182
ty 182
▁Mary 182
8 180
▁Malaysia 179
▁designed 179
▁largest 179
m 178
ry 178
▁William 178
st 177
▁St 176
shire 174
▁Men 174
ne 173
▁Space 173
▁established 173
▁there 173
▁Denmark 171
▁Town 171
▁discovered 171
▁de 170
ra 169
ce 168
▁Regional 168
ville 167
▁Records 166
▁5 165
▁Madrid 165
ma 164
▁Albert 164
▁4 163
▁office 163
ff 162
▁House 162
b 161
▁Ram 161
▁Adam 160
▁Force 159
▁Kingdom 159
ers 158
▁created 158
' 157
A 157
ico 157
▁Science 157
ship 156
ught 156
▁fo 156
▁worked 156
▁Anderson 155
▁Rib 155
▁She 155
▁long 155
▁Atlantic 154
▁La 154
land 153
▁leaders 153
c 152
▁book 151
▁managed 151
▁Hall 150
▁career 150
▁under 150
bor 149
en 149
▁Ab 149
▁C 149
▁March 149
▁based 149
le 148
▁air 148
nell 147
▁Adams 147
▁School 147
▁graduate 147
ity 146
▁July 146
▁M 146
▁Spanish 146
▁contain 146
▁manufacture 146
lin 145
▁27 145
▁K 145
▁architect 145
▁origin 145
is 143
li 143
rd 143
▁Monument 143
▁birth 143
▁17 142
▁Ohio 142
▁solo 142
kita 141
▁December 141
▁Lo 141
▁Technology 141
▁character 141
▁DC 140
▁National 140
▁retire 140
lene 139
ny 139
▁Athen 139
▁Civil 139
de 138
▁14 138
▁Am 138
▁Jones 138
▁have 138
▁metal 138
▁or 138
L 137
▁Aldri 137
re 136
kron 135
▁total 135
l 134
▁Abraham 134
▁Roma 134
dri 133
▁2014 133
▁Wisconsin 133
▁1963 132
▁includes 132
den 131
▁2006 131
▁Po 131
▁dessert 131
▁Battle 130
▁Black 130
▁s 130
owned 129
w 129
▁18 129
▁Co 129
▁floor 129
Don 128
more 128
▁Britain 128
▁Public 128
▁commande 128
▁den 128
▁Great 127
ic 125
▁31 125
▁See 125
FC 124
con 124
fant 124
or 124
▁AC 124
▁Au 123
▁Buzz 123
▁Chi 123
▁Elliot 123
▁Singapore 123
▁artist 123
▁former 123
u 122
▁Bor 122
▁Connect 122
▁Man 122
▁completed 122
▁25 121
▁Alex 121
▁England 121
▁Madison 121
cut 120
ur 120
us 120
▁Atlanta 120
▁Bar 120
▁France 120
▁sandwich 120
▁their 120
bu 119
long 119
par 119
well 119
▁Ana 119
▁For 119
▁population 119
▁used 119
ham 118
▁Association 118
▁Philippines 118
▁Sri 118
▁both 118
ef 117
▁now 117
LC 116
ben 116
▁Abi 116
▁Alban 116
▁comic 116
ha 115
q 115
▁6 115
▁Do 115
▁Louis 115
▁Social 115
▁related 115
R 114
▁Fo 114
▁I 114
▁fusion 114
-3 113
▁Arian 113
et 112
▁currency 112
▁signed 112
base 111
▁2009 111
▁Barack 111
▁Obama 111
▁One 111
burn 110
ca 110
▁South 110
port 109
sburg 109
tives 109
▁23 109
▁Italian 109
▁Michigan 109
▁Netherlands 109
co 108
ge 108
nts 108
▁Bean 108
▁Greece 108
▁Turn 108
▁academic 108
▁but 108
▁were 108
1 107
el 107
habita 107
que 107
▁J 107
▁Mc 107
▁students 107
▁while 107
unta 106
▁15 106
▁Java 106
▁Serie 106
▁began 106
▁company 106
cio 105
dor 105
to 105
▁mater 105
▁test 105
un 104
▁Abel 104
▁Long 104
▁Angola 103
▁His 103
das 102
heim 102
▁; 102
▁Ash 102
▁British 102
▁Cal 102
▁Er 102
▁State 102
▁code 102
▁started 102
sion 101
▁103 101
▁Ali 101
▁Business 101
▁award 101
quer 100
▁Ahmet 100
▁Club 100
▁Mar 100
▁Pakistan 100
▁Tai 100
▁Virginia 100
▁body 100
▁transport 100
▁variation 100
▁Ajax 99
▁Sport 99
▁full 99
aceae 98
am 98
med 98
▁Mississippi 98
▁North 98
▁P 98
▁they 98
▁1955 97
▁Gu 97
▁Wer 97
▁8 96
▁Apple 96
▁College 96
▁Lanka 96
▁Minister 96
▁Pennsylvania 96
▁Representa 96
▁flight 96
ling 95
ov 95
rhythm 95
▁20 95
▁250 95
▁Ham 95
▁Rid 95
▁alma 95
Accademia 94
assemble 94
place 94
▁Anti 94
▁Cleveland 94
▁T 94
polis 93
▁food 93
▁use 93
dding 92
ves 92
▁2000 92
▁Bangalore 92
▁Gar 92
▁Rome 92
▁Street 92
▁had 92
▁label 92
0 91
ig 91
▁0 91
▁SC 91
▁Uruguay 91
▁within 91
36 90
dge 90
▁Prime 90
▁Sol 90
▁ab 90
▁pu 90
4 89
ner 89
nico 89
nit 89
▁days 89
bbi 88
ey 88
ical 88
▁Adolf 88
▁Austria 88
▁Baku 88
▁Canada 88
▁Conference 88
▁Juan 88
▁Mahmud 88
▁Rock 88
▁Romania 88
▁Si 88
▁milli 88
▁season 88
▁style 88
Q 87
brev 87
metre 87
mi 87
no 87
ssa 87
▁Chicago 87
▁European 87
▁Her 87
▁ISBN 87
▁escape 87
▁include 87
▁staff 87
il 86
lion 86
▁Rebel 86
▁Road 86
▁Turkey 86
▁count 86
▁meter 86
▁president 86
▁veloci 86
tettu 85
tion 85
▁Addis 85
▁Alfa 85
▁Antar 85
▁Archi 85
▁Cri 85
▁Illinois 85
▁Moscow 85
▁Ro 85
▁Romeo 85
▁Wild 85
▁league 85
▁ship 85
K 84
at 84
fighter 84
▁Christian 84
▁Hong 84
▁Karnataka 84
▁Kong 84
▁Ray 84
▁Summit 84
▁na 84
baba 83
barth 83
nie 83
▁battle 83
▁been 83
▁first 83
▁pais 83
RB 82
est 82
mar 82
pool 82
silo 82
vari 82
▁AL 82
▁Act 82
▁Col 82
▁Os 82
▁Switzerland 82
▁place 82
MC 81
dis 81
ft 81
ley 81
sis 81
vara 81
▁& 81
▁Ajo 81
▁Asad 81
▁Eric 81
▁Le 81
▁Technolog 81
▁Vis 81
▁alternative 81
▁order 81
jas 80
lu 80
▁2 80
▁An 80
▁Bio 80
▁E 80
▁Explo 80
▁ISSN 80
▁Pena 80
3 79
ar 79
as 79
cho 79
▁1000 79
▁13 79
▁Agnes 79
▁Alaska 79
▁Authority 79
▁Band 79
▁Chinese 79
▁James 79
▁hop 79
▁se 79
blanc 78
▁Amar 78
▁Johnson 78
▁power 78
▁preced 78
link 77
mont 77
▁Derby 77
▁Mata 77
▁UK 77
▁Ver 77
▁currently 77
▁mass 77
▁po 77
ji 76
nikov 76
so 76
▁Dallas 76
▁Pru 76
▁USA 76
▁pe 76
▁te 76
aire 75
▁Ben 75
▁June 75
▁Launch 75
▁San 75
▁Teis 75
▁popular 75
eja 74
pena 74
ter 74
werp 74
▁Ant 74
▁Atlas 74
▁Elizabeth 74
▁G 74
▁German 74
▁Grey 74
▁Mathe 74
Bar 73
ga 73
lar 73
nings 73
ow 73
▁100 73
▁Bur 73
▁January 73
▁Jen 73
▁Vi 73
▁car 73
▁chicken 73
▁penye 73
00000 72
les 72
▁164 72
▁Football 72
▁French 72
▁Houston 72
▁Lu 72
▁SV 72
▁Was 72
craft 71
cura 71
raz 71
▁2005 71
▁Big 71
▁League 71
▁November 71
▁W 71
▁attend 71
▁speed 71
-1 70
iva 70
kov 70
se 70
ture 70
▁Alca 70
▁Amsterdam 70
▁Ayam 70
▁Iraq 70
▁May 70
▁Senat 70
▁Vers 70
▁Zealand 70
▁head 70
▁this 70
D 69
ans 69
ast 69
bat 69
x 69
▁2015 69
▁Art 69
▁Avenue 69
▁Ay 69
▁R 69
▁became 69
▁black 69
▁during 69
F 68
ber 68
ster 68
ware 68
▁Birmingham 68
▁Dance 68
▁Dela 68
▁East 68
▁Germany 68
▁Har 68
▁Turk 68
▁Turki 68
▁Ve 68
▁Wheel 68
2 67
fried 67
gun 67
ist 67
itra 67
rian 67
▁Agra 67
▁Alabama 67
▁Alberto 67
▁Disc 67
▁Evil 67
▁Felipe 67
▁Libra 67
▁Mars 67
▁Pietro 67
▁Sabi 67
▁Sarawak 67
▁Way 67
▁West 67
▁cake 67
▁star 67
▁successo 67
X 66
ation 66
sam 66
ve 66
▁Alder 66
▁August 66
▁Bat 66
▁Be 66
▁Ber 66
▁Parliament 66
▁Press 66
▁journal 66
▁operating 66
▁represent 66
▁youth 66
ana 65
ir 65
tar 65
▁1932 65
▁Azerbaijan 65
▁Cat 65
▁Dr 65
▁Green 65
▁Ice 65
▁Oregon 65
▁Parker 65
▁RS 65
CO 64
H 64
gno 64
mond 64
ney 64
ting 64
▁26 64
▁Ala 64
▁Blues 64
▁Dag 64
▁Holl 64
▁Row 64
▁Wizard 64
▁X 64
▁Zi 64
▁vegetables 64
So 63
bour 63
rosa 63
▁Ale 63
▁Bella 63
▁Caballero 63
▁champion 63
▁lead 63
▁party 63
▁record 63
▁south 63
ac 62
ated 62
bach 62
pil 62
sed 62
trici 62
▁Car 62
▁Char 62
▁Democratic 62
▁Gor 62
▁Mark 62
▁Mid 62
▁OC 62
▁They 62
▁Verona 62
▁kwa 62
▁pages 62
ction 61
fon 61
j 61
lor 61
me 61
si 61
vy 61
yal 61
▁- 61
▁600 61
▁Ada 61
▁Audi 61
▁Bana 61
▁Dia 61
▁Ne 61
▁Scal 61
▁all 61
▁monument 61
▁once 61
der 60
fa 60
vah 60
za 60
– 60
▁101 60
▁Allen 60
▁Chu 60
▁Colombia 60
▁Glen 60
▁Ja 60
▁Moore 60
▁Museum 60
▁Roman 60
▁Sand 60
▁Watson 60
▁govern 60
▁organisation 60
bury 59
illo 59
rest 59
sser 59
▁Alla 59
▁District 59
▁Ef 59
▁Engineering 59
▁Honda 59
▁Hotel 59
▁Indian 59
▁Iqbal 59
▁Los 59
▁Pe 59
▁Shi 59
▁author 59
▁cele 59
▁deriva 59
▁eleva 59
▁live 59
▁means 59
▁negre 59
▁print 59
▁selected 59
▁type 59
200 58
26 58
5 58
tella 58
tenant 58
▁30 58
▁Ama 58
▁Angeles 58
▁Argentina 58
▁As 58
▁Ireland 58
▁Lake 58
▁Luna 58
▁October 58
▁disco 58
▁white 58
donis 57
get 57
ice 57
red 57
rett 57
▁107 57
▁Council 57
▁Craig 57
▁Frederic 57
▁Ga 57
▁Inc 57
▁Japan 57
bal 56
evo 56
min 56
tress 56
va 56
▁0.0 56
▁At 56
▁Bha 56
▁Copenhagen 56
▁Dal 56
▁Day 56
▁Ground 56
▁TL 56
▁Williams 56
99 55
LV 55
como 55
hem 55
quart 55
▁Abubakar 55
▁Charlie 55
▁Guia 55
▁Kan 55
▁Pala 55
▁Province 55
▁Rad 55
▁ant 55
▁building 55
▁hip 55
▁m 55
▁north 55
▁pop 55
▁publish 55
CN 54
IP 54
cot 54
ira 54
lic 54
para 54
town 54
vers 54
▁1918 54
▁1923 54
▁1996 54
▁Arap 54
▁Brazil 54
▁Decembrie 54
▁Department 54
▁GT 54
▁Get 54
▁Jr 54
▁Lee 54
▁Pre 54
▁Robert 54
▁Sa 54
▁hard 54
E 53
Rhythm 53
Ros 53
cover 53
gon 53
nou 53
xe 53
▁300 53
▁Bay 53
▁Bu 53
▁Cruise 53
▁Service 53
▁VI 53
▁al 53
▁guitar 53
▁oil 53
▁post 53
▁sa 53
▁stylist 53
97 52
alle 52
ate 52
do 52
ria 52
▁Assembl 52
▁Bath 52
▁Den 52
▁Frank 52
▁Helena 52
▁Marriott 52
▁Miller 52
▁Per 52
▁World 52
▁final 52
▁jazz 52
▁key 52
▁plant 52
▁title 52
▁transmission 52
01 51
7 51
cy 51
gre 51
nut 51
quen 51
▁1910 51
▁1998 51
▁560 51
▁Adi 51
▁Ard 51
▁Army 51
▁Da 51
▁Glas 51
▁Gro 51
▁Kha 51
▁Medal 51
▁Plac 51
▁Sky 51
▁Tennessee 51
▁Wolf 51
▁followed 51
▁married 51
▁van 51
000 50
28 50
900 50
Qu 50
bo 50
g 50
orno 50
um 50
▁1927 50
▁1986 50
▁Ak 50
▁Dim 50
▁Finland 50
▁Liv 50
▁Milan 50
▁Mono 50
▁involved 50
▁later 50
▁manage 50
▁many 50
▁previously 50
▁traditional 50
Atlant 49
ELA 49
hor 49
inig 49
lde 49
rena 49
▁1928 49
▁1962 49
▁Alpha 49
▁Andra 49
▁Fen 49
▁Fy 49
▁Gaz 49
▁Grant 49
▁Orange 49
▁Pop 49
▁Se 49
▁To 49
▁Twilight 49
▁current 49
▁parent 49
-17 48
000000 48
300 48
go 48
km 48
men 48
vis 48
▁52 48
▁AW 48
▁Afonso 48
▁April 48
▁Central 48
▁Costa 48
▁Pro 48
▁among 48
▁available 48
▁compete 48
▁discipline 48
▁official 48
▁surface 48
24 47
LT 47
ade 47
burg 47
f 47
kin 47
och 47
tato 47
zny 47
▁200 47
▁BBC 47
▁Polis 47
▁September 47
▁Sever 47
▁Sparta 47
▁Tar 47
▁debut 47
▁der 47
▁player 47
▁rice 47
▁speaking 47
-15 46
23 46
O 46
dan 46
iyat 46
rait 46
sti 46
ult 46
▁Camilla 46
▁Ce 46
▁Company 46
▁Daw 46
▁Fre 46
▁George 46
▁Para 46
▁Sar 46
75 45
Marc 45
aid 45
nese 45
ough 45
▁Bi 45
▁Burn 45
▁Euro 45
▁Historic 45
▁Li 45
▁Place 45
▁Samar 45
▁Suárez 45
▁Union 45
▁Ya 45
▁bas 45
▁family 45
▁original 45
▁same 45
▁speak 45
27 44
46 44
BS 44
WC 44
ales 44
ave 44
ck 44
davad 44
mez 44
zane 44
▁1957 44
▁28 44
▁AIDS 44
▁Add 44
▁Advance 44
▁Base 44
▁Belgium 44
▁Hunt 44
▁Square 44
▁Vol 44
▁Walter 44
▁background 44
▁backup 44
▁being 44
▁kg 44
▁ni 44
▁property 44
▁wa 44
12 43
14 43
89 43
Am 43
ary 43
heed 43
kes 43
lusi 43
mann 43
salam 43
tica 43
we 43
▁Administrativ 43
▁Allan 43
▁Anda 43
▁Bob 43
▁Centre 43
▁Congress 43
▁Daniel 43
▁Guru 43
▁Johann 43
▁Kova 43
▁Lock 43
▁Mala 43
▁Old 43
▁Philippine 43
▁Quart 43
▁Richard 43
▁Schneider 43
▁along 43
▁district 43
▁person 43
ering 42
ets 42
hed 42
rik 42
sena 42
v 42
vin 42
▁1930 42
▁Aleks 42
▁Canadian 42
▁Delta 42
▁Francisco 42
▁Ful 42
▁Go 42
▁Indi 42
▁Journal 42
▁Kerala 42
▁Ko 42
▁L 42
▁Mad 42
▁Meta 42
▁Mr 42
▁cream 42
▁red 42
▁similar 42
▁situat 42
▁temperature 42
090 41
aar 41
break 41
ek 41
halli 41
hatta 41
istan 41
krishna 41
matic 41
palli 41
rg 41
ta 41
tyr 41
ul 41
vana 41
▁1989 41
▁Ace 41
▁Alexandr 41
▁Grass 41
▁Gren 41
▁Hip 41
▁Main 41
▁Phillip 41
▁Potter 41
▁Pradesh 41
▁Pri 41
▁Register 41
▁Rut 41
▁Suma 41
▁This 41
▁Titan 41
▁Uttar 41
▁coach 41
▁second 41
660 40
ina 40
ington 40
ja 40
mbra 40
ont 40
rez 40
video 40
▁110 40
▁1969 40
▁1999 40
▁34 40
▁AZ 40
▁Agus 40
▁Bremen 40
▁Cape 40
▁Hum 40
▁Mag 40
▁Mayor 40
▁Monte 40
▁Stuart 40
▁Sua 40
▁Tex 40
▁Zahra 40
▁bin 40
▁division 40
▁doctor 40
▁la 40
21 39
29 39
ating 39
dir 39
fec 39
hang 39
ment 39
onda 39
os 39
tone 39
ved 39
▁AS 39
▁Alba 39
▁Arena 39
▁Boo 39
▁Brussel 39
▁Governo 39
▁Jaya 39
▁Joe 39
▁Nav 39
▁Sara 39
▁Stadium 39
▁added 39
▁folk 39
▁measure 39
▁space 39
16 38
18 38
ZAL 38
ach 38
da 38
dab 38
gaard 38
gor 38
hol 38
mouth 38
ti 38
tin 38
tra 38
▁22 38
▁9 38
▁Abra 38
▁Aires 38
▁Avia 38
▁Buenos 38
▁Catal 38
▁Falcon 38
▁Hospital 38
▁Jazz 38
▁Michel 38
▁Pad 38
▁Schi 38
▁UT 38
▁Vice 38
▁Work 38
▁before 38
▁diameter 38
▁draft 38
▁funk 38
▁mai 38
▁milk 38
▁system 38
13 37
15 37
ids 37
onia 37
pop 37
▁1950 37
▁Chance 37
▁Cornel 37
▁David 37
▁Dublin 37
▁Ethiopia 37
▁Federal 37
▁Gujarat 37
▁Manhattan 37
▁Math 37
▁Paraguay 37
▁Polo 37
▁Rotterdam 37
▁banana 37
▁dedicated 37
▁deri 37
▁flow 37
▁gar 37
▁kel 37
▁student 37
▁studie 37
94 36
ata 36
cu 36
ern 36
espace 36
ette 36
nac 36
tingu 36
vut 36
▁Antoni 36
▁Ata 36
▁Chief 36
▁Davis 36
▁Dis 36
▁Douglas 36
▁Erasmus 36
▁Greek 36
▁Lahore 36
▁Lincoln 36
▁Memorial 36
▁Tama 36
▁Tom 36
▁Vand 36
▁categori 36
▁cuisine 36
▁sec 36
▁went 36
▁won 36
19 35
264 35
600 35
ação 35
be 35
cone 35
enberg 35
hand 35
mac 35
max 35
nd 35
strup 35
▁2004 35
▁2013 35
▁410 35
▁Abo 35
▁Africa 35
▁Arabic 35
▁Battlefield 35
▁Carlos 35
▁Claudio 35
▁February 35
▁Helsinki 35
▁King 35
▁Kovač 35
▁Lyon 35
▁Mendoza 35
▁Nation 35
▁Port 35
▁Punjab 35
▁Re 35
▁Republic 35
▁Sergio 35
▁Ste 35
▁Tir 35
▁Wil 35
▁With 35
▁chair 35
▁clubs 35
▁egg 35
▁litre 35
▁punk 35
▁reside 35
▁so 35
▁straight 35
▁top 35
-0 34
06 34
33 34
777 34
8.8 34
CM 34
hel 34
kke 34
quia 34
roll 34
speed 34
uren 34
▁8. 34
▁Ann 34
▁Boris 34
▁Bumiputera 34
▁China 34
▁Coupe 34
▁Education 34
▁Fall 34
▁Fe 34
▁Funk 34
▁Hero 34
▁Jan 34
▁Lars 34
▁Mas 34
▁Morgan 34
▁Ot 34
▁Parti 34
▁Rasmussen 34
▁Spania 34
▁Ter 34
▁Trans 34
▁Vincent 34
▁Wi 34
▁average 34
▁contribu 34
▁dem 34
▁flo 34
▁her 34
▁me 34
▁novel 34
09 33
10 33
EK 33
gie 33
ica 33
identifi 33
ingen 33
los 33
rage 33
ters 33
usage 33
▁1933 33
▁1966 33
▁All 33
▁Bata 33
▁Cle 33
▁Der 33
▁Egg 33
▁Fle 33
▁Fort 33
▁Gott 33
▁Hy 33
▁Julia 33
▁Paul 33
▁Peter 33
▁SB 33
▁So 33
▁Technic 33
▁Tran 33
▁class 33
▁inaugura 33
▁los 33
▁minutes 33
▁por 33
▁year 33
3.9 32
4.0 32
48 32
737 32
Associazione 32
Ta 32
Za 32
cher 32
dels 32
igh 32
ine 32
jo 32
nica 32
oh 32
shed 32
tel 32
tter 32
west 32
▁1995 32
▁21 32
▁AF 32
▁Boston 32
▁Case 32
▁Cum 32
▁Dun 32
▁Fig 32
▁Hamburg 32
▁High 32
▁III 32
▁Jens 32
▁Jonathan 32
▁Mike 32
▁Moy 32
▁Ty 32
▁creator 32
▁including 32
▁site 32
▁– 32
130 31
788 31
ENA 31
FD 31
IRE 31
back 31
cia 31
cion 31
ger 31
id 31
ique 31
mish 31
nais 31
ologica 31
om 31
per 31
quel 31
ram 31
rella 31
ros 31
stock 31
▁03 31
▁162 31
▁18. 31
▁39 31
▁5. 31
▁Acc 31
▁Bert 31
▁Complex 31
▁Cor 31
▁Fernando 31
▁Island 31
▁Mak 31
▁Matt 31
▁Mumbai 31
▁No 31
▁Olymp 31
▁Pin 31
▁Poland 31
▁Vor 31
▁broadcast 31
▁kilogram 31
▁li 31
▁mm 31
▁nood 31
▁owner 31
▁spo 31
▁vehicle 31
31 30
32 30
35 30
47 30
63 30
7.0 30
cup 30
dez 30
dro 30
ello 30
nan 30
rama 30
saka 30
satu 30
sha 30
turk 30
▁1974 30
▁2011 30
▁2016 30
▁44 30
▁7 30
▁700 30
▁Alexander 30
▁Arra 30
▁Bad 30
▁Di 30
▁Florida 30
▁Isi 30
▁Lyd 30
▁Mah 30
▁Neptun 30
▁Nigeria 30
▁Pero 30
▁Sid 30
▁Speed 30
▁Sub 30
▁asteroid 30
▁dos 30
▁form 30
▁join 30
▁memoria 30
▁sweet 30
▁tart 30
▁well 30
11 29
Assad 29
ICA 29
ble 29
gradu 29
gue 29
him 29
ho 29
ins 29
ives 29
kur 29
liga 29
mati 29
pan 29
ph 29
rò 29
size 29
tik 29
wys 29
▁1993 29
▁1994 29
▁88 29
▁Academy 29
▁Ahmad 29
▁Bot 29
▁Church 29
▁Custom 29
▁Dead 29
▁Gang 29
▁Gau 29
▁Ha 29
▁Il 29
▁Jackson 29
▁Jorge 29
▁Kad 29
▁Mario 29
▁Office 29
▁Premier 29
▁Queen 29
▁RO 29
▁Ryan 29
▁Sam 29
▁Scott 29
▁Sea 29
▁Tha 29
▁Tor 29
▁ended 29
▁mission 29
▁olive 29
▁passed 29
▁produced 29
▁took 29
▁war 29
▁wheel 29
04 28
7000 28
80 28
IT 28
ad 28
cin 28
ez 28
ings 28
io 28
iye 28
kat 28
kryt 28
may 28
pé 28
rant 28
singh 28
tor 28
zzi 28
▁47 28
▁Airlines 28
▁Alexandra 28
▁Brasileiro 28
▁Brom 28
▁Campeonato 28
▁Gruppo 28
▁Hal 28
▁Iz 28
▁Kuch 28
▁Kut 28
▁Manchester 28
▁Manuel 28
▁Member 28
▁Mir 28
▁Ran 28
▁Reyes 28
▁Stad 28
▁Vall 28
▁Van 28
▁Wick 28
▁Za 28
▁amateur 28
▁away 28
▁campus 28
▁construct 28
▁course 28
▁four 28
▁higher 28
▁house 28
▁kilometer 28
▁nation 28
▁than 28
-2 27
0000 27
3.0 27
391 27
9 27
ese 27
im 27
licita 27
lini 27
mir 27
pin 27
rol 27
suf 27
urban 27
ver 27
wood 27
▁109 27
▁1925 27
▁37 27
▁66 27
▁Ad 27
▁Ankara 27
▁Aur 27
▁Cana 27
▁Charles 27
▁Community 27
▁El 27
▁Friedrich 27
▁Jefferson 27
▁Ju 27
▁KW 27
▁Kalla 27
▁Klaus 27
▁Lar 27
▁Lip 27
▁Marco 27
▁Meyer 27
▁Modi 27
▁Narendra 27
▁Ni 27
▁Park 27
▁Seminar 27
▁Shu 27
▁Six 27
▁Soviet 27
▁Station 27
▁Susan 27
▁Sy 27
▁Syn 27
▁There 27
▁bha 27
▁cho 27
▁coco 27
▁come 27
▁find 27
▁other 27
▁politici 27
▁service 27
▁town 27
165 26
2.2 26
380 26
6 26
68 26
St 26
fen 26
jl 26
lea 26
ll 26
lo 26
my 26
ng 26
odo 26
puta 26
sia 26
▁1987 26
▁60 26
▁America 26
▁Atatürk 26
▁Belg 26
▁Bill 26
▁Buch 26
▁Dol 26
▁Ferenc 26
▁HIV 26
▁Harri 26
▁Hil 26
▁Joko 26
▁Loca 26
▁Miha 26
▁Motor 26
▁Pan 26
▁Rahman 26
▁Secretary 26
▁Silva 26
▁Systems 26
▁TC 26
▁Ten 26
▁We 26
▁Wid 26
▁cover 26
▁last 26
25 25
43 25
439 25
Commerce 25
DEN 25
adi 25
af 25
ak 25
can 25
colo 25
dam 25
ene 25
esh 25
mah 25
nant 25
rys 25
ural 25
ury 25
viet 25
▁1907 25
▁29 25
▁Argentin 25
▁CO 25
▁Castle 25
▁Contra 25
▁Dy 25
▁Fight 25
▁General 25
▁Grove 25
▁Guard 25
▁Hali 25
▁Health 25
▁Hor 25
▁Iohannis 25
▁Legend 25
▁Leipzig 25
▁MBA 25
▁Me 25
▁Pacific 25
▁Pol 25
▁Ra 25
▁Staten 25
▁Stellen 25
▁Tan 25
▁Thomas 25
▁Tony 25
▁chose 25
▁co 25
▁conflict 25
▁eat 25
▁feet 25
▁lux 25
▁tall 25
▁you 25
-07- 24
100 24
45 24
92 24
FK 24
asan 24
au 24
bank 24
bhu 24
bi 24
ced 24
ero 24
hra 24
ion 24
kumar 24
list 24
mai 24
oglu 24
pe 24
ttoman 24
varo 24
wide 24
▁1981 24
▁1983 24
▁2001 24
▁Ahmedabad 24
▁Dynamics 24
▁Esta 24
▁Fa 24
▁Franklin 24
▁Gul 24
▁Istanbul 24
▁Laura 24
▁Massachusetts 24
▁Pra 24
▁Roland 24
▁Sports 24
▁Tyr 24
▁active 24
▁bronz 24
▁came 24
▁chi 24
▁cu 24
▁discover 24
▁lemon 24
▁municipal 24
▁such 24
▁water 24
03 23
1.6 23
20 23
371 23
40 23
60 23
84 23
V 23
dum 23
endorf 23
ik 23
ional 23
isch 23
ku 23
lay 23
ol 23
ola 23
pura 23
qad 23
ron 23
sula 23
tol 23
val 23
ward 23
zhi 23
▁120 23
▁320 23
▁5.3 23
▁Bol 23
▁Cambridge 23
▁Canon 23
▁Carolina 23
▁Cro 23
▁Cyr 23
▁Design 23
▁Dori 23
▁Fiat 23
▁Hopkins 23
▁Kol 23
▁Kot 23
▁Magda 23
▁Mon 23
▁Montreal 23
▁Palermo 23
▁Paris 23
▁People 23
▁Pia 23
▁Roberts 23
▁Saab 23
▁Super 23
▁Viking 23
▁attached 23
▁cook 23
▁film 23
▁gram 23
▁lives 23
▁local 23
▁pred 23
▁soldi 23
▁spent 23
▁university 23
-9 22
3.8 22
5.0 22
70 22
90 22
ARA 22
Kal 22
T 22
cea 22
cess 22
ettes 22
ians 22
iere 22
inti 22
kar 22
kopi 22
ni 22
ple 22
pou 22
trin 22
tting 22
wan 22
z 22
▁4- 22
▁9000 22
▁Con 22
▁Croc 22
▁Death 22
▁Drago 22
▁Ea 22
▁Filipino 22
▁Hai 22
▁Im 22
▁Korean 22
▁Lotus 22
▁Massimo 22
▁Pav 22
▁Petro 22
▁Plan 22
▁Script 22
▁Stars 22
▁Universiti 22
▁between 22
▁connected 22
▁considered 22
▁gran 22
▁included 22
▁instrument 22
▁nick 22
▁reference 22
▁size 22
▁sub 22
542 21
76 21
TU 21
action 21
ants 21
cano 21
che 21
cou 21
fare 21
four 21
he 21
ita 21
jan 21
master 21
tsi 21
▁08 21
▁1956 21
▁210 21
▁290 21
▁3500 21
▁4. 21
▁45 21
▁Alma 21
▁Boeing 21
▁Bund 21
▁Curitiba 21
▁Globe 21
▁Gold 21
▁Hus 21
▁Information 21
▁Isabel 21
▁Iulia 21
▁Jack 21
▁Jacob 21
▁Jon 21
▁Jose 21
▁Juventus 21
▁Ku 21
▁Maha 21
▁Niko 21
▁Pais 21
▁Pur 21
▁Rand 21
▁Real 21
▁Region 21
▁Rodríguez 21
▁Sao 21
▁Secret 21
▁Sto 21
▁Sum 21
▁Tab 21
▁Vou 21
▁Wel 21
▁Yu 21
▁ar 21
▁bread 21
▁da 21
▁ex 21
▁granit 21
▁ha 21
▁height 21
▁jam 21
▁le 21
▁mar 21
▁mid 21
▁new 21
▁own 21
▁ten 21
▁we 21
-4 20
/1 20
349 20
388 20
88 20
HAM 20
M 20
anda 20
bet 20
eau 20
ence 20
her 20
ies 20
ito 20
jah 20
lez 20
nge 20
oi 20
ology 20
phal 20
pras 20
sun 20
tation 20
ure 20
yin 20
ón 20
▁1862 20
▁1913 20
▁2008 20
▁49 20
▁Alexandre 20
▁Artur 20
▁Berg 20
▁Bre 20
▁But 20
▁Capitol 20
▁Columbus 20
▁Don 20
▁Drum 20
▁Du 20
▁En 20
▁Gad 20
▁Galicia 20
▁Glo 20
▁Graz 20
▁Gun 20
▁Hamilton 20
▁Här 20
▁Justicia 20
▁Mac 20
▁NR 20
▁Od 20
▁Olympic 20
▁Patrick 20
▁Pen 20
▁Pier 20
▁Rasi 20
▁Reddy 20
▁Rose 20
▁Stern 20
▁Steve 20
▁Sylv 20
▁Taylor 20
▁Tomat 20
▁Wien 20
▁Y 20
▁back 20
▁butter 20
▁category 20
▁cheese 20
▁front 20
▁influence 20
▁killed 20
▁legisla 20
▁model 20
▁off 20
▁records 20
▁ro 20
▁rupe 20
▁significant 20
▁then 20
▁when 20
▁wife 20
-11- 19
558 19
56 19
749 19
93 19
95 19
CF 19
Royce 19
arch 19
don 19
eign 19
ibu 19
ils 19
it 19
lein 19
lly 19
mbo 19
name 19
onym 19
side 19
taki 19
up 19
van 19
watch 19
yard 19
ye 19
yle 19
zh 19
▁09 19
▁1959 19
▁1976 19
▁Aleksander 19
▁Alternative 19
▁Block 19
▁Bundesliga 19
▁Campus 19
▁Contr 19
▁Esse 19
▁FK 19
▁Gerard 19
▁Hein 19
▁Hungari 19
▁Imagine 19
▁Infra 19
▁Ke 19
▁Kent 19
▁Kids 19
▁Knight 19
▁Konstantin 19
▁Mit 19
▁Ober 19
▁Osim 19
▁Qatar 19
▁Salvador 19
▁Star 19
▁Steven 19
▁Tur 19
▁Valencia 19
▁avocado 19
▁bar 19
▁comparable 19
▁makes 19
▁muffin 19
▁n 19
▁out 19
▁pea 19
▁piece 19
▁previous 19
▁pro 19
▁r 19
▁rais 19
▁ras 19
▁sang 19
▁sar 19
▁subsidi 19
▁west 19
▁will 19
57 18
700 18
adh 18
angan 18
aty 18
ejo 18
gib 18
gled 18
heel 18
itis 18
kub 18
lib 18
low 18
machine 18
nce 18
ponent 18
reo 18
sco 18
sel 18
sta 18
stro 18
tech 18
ther 18
viv 18
▁1.9 18
▁159 18
▁168 18
▁1931 18
▁77 18
▁Ap 18
▁Arc 18
▁Aw 18
▁Banner 18
▁Cu 18
▁Dan 18
▁Entertainment 18
▁Fiorentina 18
▁Karp 18
▁Lan 18
▁Legisla 18
▁MIT 18
▁Mol 18
▁Sergey 18
▁Ska 18
▁Span 18
▁Universitas 18
▁address 18
▁degree 18
▁edit 18
▁finished 18
▁government 18
▁historic 18
▁hot 18
▁land 18
▁line 18
▁medal 18
▁non 18
▁organization 18
▁religion 18
▁sam 18
▁sma 18
▁tomato 18
▁voyage 18
▁wrote 18
-03- 17
-20 17
160 17
546 17
55 17
997 17
architecture 17
bh 17
bic 17
field 17
hte 17
imp 17
kg 17
phos 17
rizo 17
than 17
tory 17
try 17
ving 17
wer 17
▁108 17
▁1500 17
▁179 17
▁1850 17
▁1979 17
▁1988 17
▁360 17
▁978- 17
▁99 17
▁Award 17
▁Bloom 17
▁Ca 17
▁Comme 17
▁DA 17
▁Dona 17
▁Gra 17
▁Heart 17
▁Hop 17
▁Kansas 17
▁Live 17
▁Michael 17
▁Monroe 17
▁Nu 17
▁Palo 17
▁Pu 17
▁Rakh 17
▁Rama 17
▁Rashid 17
▁Republican 17
▁River 17
▁Rodriguez 17
▁Sale 17
▁Send 17
▁Sweet 17
▁Terra 17
▁Wilson 17
▁become 17
▁build 17
▁centre 17
▁community 17
▁drum 17
▁gear 17
▁genus 17
▁given 17
▁near 17
▁organ 17
▁playing 17
▁representativ 17
▁shr 17
▁tra 17
▁whilst 17
05 16
055 16
17 16
22 16
288 16
332 16
339 16
74 16
G 16
J 16
all 16
ant 16
ba 16
cao 16
cking 16
dar 16
dio 16
electric 16
gh 16
ie 16
ingu 16
komst 16
leri 16
linder 16
mak 16
matica 16
mia 16
oga 16
ot 16
park 16
peal 16
plo 16
put 16
same 16
set 16
sman 16
tem 16
tu 16
ucci 16
ung 16
yah 16
▁000 16
▁1971 16
▁1980 16
▁36 16
▁78 16
▁Academic 16
▁Bald 16
▁Brand 16
▁Brook 16
▁Cameron 16
▁Conserva 16
▁Eagle 16
▁Form 16
▁Franco 16
▁Grand 16
▁Hard 16
▁Igor 16
▁Jalan 16
▁Koch 16
▁MA 16
▁Min 16
▁Pag 16
▁Pal 16
▁Ple 16
▁Ponteareas 16
▁Primer 16
▁Psy 16
▁Record 16
▁Ruth 16
▁SK 16
▁Standard 16
▁System 16
▁TV 16
▁That 16
▁Tim 16
▁Toe 16
▁Word 16
▁Wort 16
▁c 16
▁cm 16
▁command 16
▁common 16
▁coup 16
▁cy 16
▁director 16
▁falls 16
▁fish 16
▁invasi 16
▁living 16
▁military 16
▁production 16
▁separate 16
▁short 16
▁status 16
▁two 16
1-8 15
109 15
305 15
44 15
448 15
459 15
479 15
6,000 15
65 15
78 15
N 15
ada 15
ark 15
bago 15
berto 15
box 15
cro 15
die 15
ele 15
ent 15
fara 15
gle 15
haft 15
ischen 15
ish 15
lent 15
lung 15
lut 15
mat 15
oca 15
ović 15
pa 15
pel 15
rata 15
rie 15
segu 15
selskab 15
syn 15
tie 15
ular 15
uring 15
vel 15
vision 15
wald 15
zi 15
ša 15
▁07 15
▁1-4 15
▁1.5 15
▁1904 15
▁1905 15
▁1958 15
▁280 15
▁3. 15
▁440 15
▁Anglia 15
▁Australia 15
▁Blue 15
▁Cara 15
▁Cast 15
▁Cham 15
▁Christmas 15
▁Città 15
▁Cul 15
▁Dave 15
▁Def 15
▁Democracy 15
▁Edwin 15
▁Enrique 15
▁Gran 15
▁H 15
▁Hernández 15
▁Ho 15
▁Irish 15
▁Isaac 15
▁Kaiser 15
▁Lufthavn 15
▁Mer 15
▁Nie 15
▁Ob 15
▁Oliver 15
▁Olu 15
▁Olympia 15
▁Pain 15
▁Pale 15
▁Roger 15
▁Roja 15
▁Ros 15
▁Russia 15
▁Sebastian 15
▁Solo 15
▁Stanley 15
▁Stati 15
▁Swiss 15
▁Taba 15
▁Te 15
▁UTC 15
▁Vietnam 15
▁Wys 15
▁Zuma 15
▁after 15
▁aus 15
▁ayam 15
▁change 15
▁christ 15
▁citizen 15
▁cold 15
▁coming 15
▁con 15
▁death 15
▁diesel 15
▁editor 15
▁fully 15
▁joint 15
▁lever 15
▁open 15
▁parts 15
▁planta 15
▁plate 15
▁received 15
▁school 15
▁single 15
▁spiral 15
▁tub 15
▁turn 15
▁typical 15
-6 14
008 14
1300 14
2.8 14
498 14
722 14
770 14
W 14
ard 14
ban 14
bar 14
beat 14
bou 14
ches 14
cino 14
dala 14
hit 14
illa 14
ini 14
iti 14
jara 14
lije 14
mbe 14
mp 14
ncia 14
nish 14
ns 14
phi 14
rick 14
rier 14
sing 14
skat 14
stic 14
the 14
tta 14
uso 14
visión 14
ys 14
érie 14
▁05 14
▁10000 14
▁16. 14
▁1857 14
▁Admin 14
▁Afro 14
▁Arab 14
▁Arabia 14
▁Arthur 14
▁Asa 14
▁Australian 14
▁Beach 14
▁Berlin 14
▁Billy 14
▁Both 14
▁Buffalo 14
▁Campbell 14
▁Cando 14
▁Ci 14
▁Circuit 14
▁Creek 14
▁Cross 14
▁Emil 14
▁Gua 14
▁Harvard 14
▁Holland 14
▁Is 14
▁Jakarta 14
▁Kor 14
▁Lega 14
▁Maine 14
▁Marg 14
▁Mexican 14
▁Music 14
▁Nijmegen 14
▁Opel 14
▁Or 14
▁Penye 14
▁Q 14
▁Rover 14
▁Roy 14
▁Russian 14
▁Sci 14
▁Styr 14
▁Thema 14
▁Thunder 14
▁Ti 14
▁Tudor 14
▁VIA 14
▁Vila 14
▁Visa 14
▁Z 14
▁bak 14
▁colour 14
▁condi 14
▁construction 14
▁electric 14
▁euro 14
▁hoga 14
▁min 14
▁more 14
▁variant 14
▁warm 14
▁Í 14
▁İzmir 14
-16 13
02. 13
1.8 13
164 13
180 13
2.0 13
260 13
3.3 13
368 13
370 13
500 13
Black 13
age 13
bit 13
cilla 13
dded 13
enza 13
habi 13
hallin 13
itan 13
jang 13
leg 13
lema 13
llow 13
pad 13
pped 13
press 13
pán 13
riam 13
sey 13
sky 13
tha 13
tiba 13
writer 13
▁19 13
▁21. 13
▁211 13
▁40 13
▁8000 13
▁94 13
▁Agency 13
▁Batu 13
▁Can 13
▁Cand 13
▁Cele 13
▁Center 13
▁Desa 13
▁Dil 13
▁Freedom 13
▁Fried 13
▁Futebol 13
▁Giuseppe 13
▁Inf 13
▁Lazio 13
▁Mai 13
▁Nova 13
▁Panama 13
▁Parc 13
▁Plaza 13
▁Post 13
▁Revi 13
▁Rosa 13
▁Royal 13
▁Sebastián 13
▁Sie 13
▁Stan 13
▁Stanford 13
▁Telangana 13
▁Tennis 13
▁Tin 13
▁Two 13
▁Wall 13
▁about 13
▁ad 13
▁bat 13
▁brown 13
▁com 13
▁countries 13
▁dark 13
▁executive 13
▁him 13
▁hub 13
▁indi 13
▁ket 13
▁metropol 13
▁mor 13
▁paper 13
▁pepper 13
▁rap 13
▁residen 13
▁river 13
▁sh 13
▁time 13
▁tonn 13
-12- 12
-26 12
1-4 12
1.0 12
149 12
3-7 12
51 12
52 12
6000 12
634 12
800 12
944 12
970 12
AA 12
AIDS 12
ATA 12
FB 12
TK 12
adas 12
bly 12
cado 12
ccup 12
celli 12
code 12
hai 12
home 12
isa 12
ladi 12
lal 12
lesen 12
letti 12
llo 12
lv 12
metal 12
mo 12
ord 12
ous 12
oğlu 12
pper 12
sa 12
sk 12
ssem 12
vaz 12
▁1982 12
▁2.0 12
▁2003 12
▁24 12
▁50 12
▁7.5 12
▁70 12
▁75 12
▁911 12
▁Ah 12
▁Amharic 12
▁Avo 12
▁Az 12
▁Bani 12
▁Berna 12
▁Berry 12
▁Bo 12
▁Chennai 12
▁Des 12
▁Diya 12
▁Electric 12
▁Emanuel 12
▁Este 12
▁Francis 12
▁Fruit 12
▁Hay 12
▁Ir 12
▁Kenn 12
▁Line 12
▁Lucian 12
▁Lø 12
▁Map 12
▁Matteo 12
▁Moro 12
▁Mula 12
▁Municipal 12
▁Order 12
▁Psalm 12
▁Rab 12
▁Rah 12
▁Ren 12
▁Samu 12
▁Seattle 12
▁Shan 12
▁Shir 12
▁Spal 12
▁Tes 12
▁Tuan 12
▁View 12
▁attack 12
▁automatic 12
▁biggest 12
▁cost 12
▁dollars 12
▁drive 12
▁fill 12
▁following 12
▁garage 12
▁having 12
▁hi 12
▁lira 12
▁ne 12
▁oy 12
▁pata 12
▁rank 12
▁recording 12
▁regional 12
▁roll 12
▁series 12
▁ska 12
▁sounds 12
▁specific 12
▁stadium 12
▁states 12
▁station 12
▁too 12
▁up 12
▁work 12
-04- 11
-05- 11
-09- 11
-21 11
-7 11
0.9 11
113 11
155 11
159 11
2. 11
3000 11
330 11
334 11
363 11
39 11
394 11
53 11
553 11
58 11
6.7 11
7.1 11
767 11
973 11
Claude 11
Lokomotiv 11
RCA 11
air 11
ara 11
assa 11
bg 11
bli 11
bre 11
bridge 11
cchi 11
chel 11
ción 11
eme 11
ery 11
ffer 11
ford 11
gran 11
hu 11
idad 11
laigh 11
market 11
nize 11
ona 11
oria 11
ovic 11
poli 11
rich 11
rou 11
sberg 11
stone 11
tolo 11
use 11
uß 11
yan 11
yet 11
▁! 11
▁1.2 11
▁125 11
▁1936 11
▁1985 11
▁51 11
▁512 11
▁520 11
▁Aff 11
▁Alfonso 11
▁Amb 11
▁Another 11
▁Arts 11
▁Babel 11
▁Bachelor 11
▁Baltic 11
▁Brooklyn 11
▁Brother 11
▁Building 11
▁Colon 11
▁Cra 11
▁Dane 11
▁Die 11
▁Dinamo 11
▁Dutch 11
▁End 11
▁Español 11
▁Evangel 11
▁Federation 11
▁Flo 11
▁Fon 11
▁Galileo 11
▁Garden 11
▁Gregor 11
▁Identifi 11
▁José 11
▁KV 11
▁Klu 11
▁Kou 11
▁Kras 11
▁Kristin 11
▁Kwa 11
▁Land 11
▁Lemon 11
▁Location 11
▁Log 11
▁Ma 11
▁Management 11
▁Meri 11
▁Niin 11
▁Ontario 11
▁Operation 11
▁Paulo 11
▁Poly 11
▁Qi 11
▁Saul 11
▁Sin 11
▁Sou 11
▁Steel 11
▁São 11
▁Ta 11
▁Terri 11
▁Test 11
▁Tham 11
▁Trin 11
▁Tu 11
▁Universität 11
▁Walt 11
▁Whit 11
▁Wol 11
▁XIII 11
▁Xiao 11
▁bande 11
▁base 11
▁chili 11
▁classe 11
▁competi 11
▁compris 11
▁confe 11
▁department 11
▁door 11
▁fruits 11
▁games 11
▁itself 11
▁latin 11
▁make 11
▁manual 11
▁mayor 11
▁names 11
▁personnel 11
▁political 11
▁postal 11
▁pre 11
▁ser 11
▁some 11
▁tapi 11
▁w 11
136 10
158 10
1960 10
206 10
395 10
5000 10
571 10
646 10
652 10
657 10
684 10
863 10
870 10
GR 10
Na 10
ancia 10
by 10
centimetr 10
ched 10
cos 10
ctic 10
dol 10
ensis 10
etti 10
gar 10
gin 10
iller 10
keh 10
la 10
lands 10
ndo 10
nelle 10
net 10
nza 10
obi 10
ors 10
ots 10
pane 10
pod 10
pul 10
rah 10
riga 10
ring 10
rini 10
sche 10
sque 10
tional 10
tín 10
visor 10
yang 10
yev 10
ña 10
▁02 10
▁151 10
▁1901 10
▁1909 10
▁1990 10
▁299 10
▁35 10
▁89 10
▁AK 10
▁Airbus 10
▁Augustus 10
▁Auto 10
▁BC 10
▁Ban 10
▁Berliner 10
▁Bold 10
▁Bright 10
▁Bru 10
▁Bus 10
▁Carp 10
▁Che 10
▁Chrysler 10
▁Coro 10
▁Division 10
▁Eli 10
▁FA 10
▁Fab 10
▁Farm 10
▁Finns 10
▁Fire 10
▁Gabriel 10
▁Gala 10
▁Gene 10
▁Government 10
▁Gus 10
▁Home 10
▁Hun 10
▁Jama 10
▁Joseph 10
▁Karl 10
▁Linn 10
▁Mich 10
▁Monde 10
▁Petra 10
▁Plant 10
▁Previous 10
▁Price 10
▁Published 10
▁Putrajaya 10
▁Sharif 10
▁Short 10
▁Spring 10
▁Stock 10
▁Tampere 10
▁Torino 10
▁Tra 10
▁Transport 10
▁Uni 10
▁Vale 10
▁Virtu 10
▁Voice 10
▁Wave 10
▁Wet 10
▁Youth 10
▁american 10
▁baj 10
▁blanco 10
▁blue 10
▁bro 10
▁chill 10
▁craft 10
▁gu 10
▁held 10
▁kailan 10
▁man 10
▁mean 10
▁mer 10
▁million 10
▁o 10
▁operator 10
▁sal 10
▁shall 10
▁submarin 10
▁tennis 10
▁using 10
▁vermi 10
▁Æ 10
-01- 9
-06- 9
/30 9
3.1 9
4.9 9
41 9
488 9
5.7 9
6.6 9
608 9
696 9
739 9
83 9
OK 9
PS 9
Star 9
TV 9
Ver 9
asha 9
ations 9
baan 9
cted 9
elia 9
fish 9
hydrat 9
iensis 9
ith 9
kryp 9
lise 9
ments 9
nca 9
nol 9
opter 9
ota 9
over 9
quid 9
rese 9
ries 9
rix 9
ro 9
serve 9
sit 9
stadt 9
tam 9
tions 9
top 9
ts 9
ttle 9
turing 9
ub 9
ut 9
yr 9
yum 9
zo 9
úl 9
’ 9
▁0.2 9
▁114 9
▁127 9
▁178 9
▁1914 9
▁31. 9
▁33 9
▁380 9
▁4000 9
▁42 9
▁61 9
▁Abu 9
▁Adelaide 9
▁Aste 9
▁Astro 9
▁Aviv 9
▁By 9
▁CA 9
▁Carles 9
▁Carra 9
▁Cook 9
▁Dari 9
▁Dick 9
▁Dig 9
▁Espa 9
▁Excellence 9
▁Fox 9
▁Fu 9
▁Gard 9
▁Guardian 9
▁Jong 9
▁Juha 9
▁Kuala 9
▁Larry 9
▁Led 9
▁Len 9
▁Lumpur 9
▁Mater 9
▁Melaka 9
▁Ministry 9
▁Neu 9
▁Oro 9
▁PS 9
▁Physic 9
▁Property 9
▁Puigdemont 9
▁Roll 9
▁Run 9
▁Sachsen 9
▁Spa 9
▁Stalin 9
▁Stephen 9
▁Stockholm 9
▁Stö 9
▁Tamil 9
▁Tel 9
▁Velo 9
▁Vic 9
▁Viktor 9
▁ajo 9
▁another 9
▁appeared 9
▁bake 9
▁bio 9
▁bod 9
▁cottage 9
▁drie 9
▁element 9
▁ere 9
▁fresh 9
▁general 9
▁gold 9
▁gula 9
▁helped 9
▁judge 9
▁leng 9
▁like 9
▁loin 9
▁most 9
▁motto 9
▁over 9
▁participat 9
▁program 9
▁sedan 9
▁sever 9
▁several 9
▁sli 9
▁sometimes 9
▁soy 9
▁sports 9
▁stories 9
▁succede 9
▁tender 9
▁types 9
-03 8
-8 8
03. 8
142 8
150 8
2- 8
2.3 8
220 8
279 8
392 8
463 8
495 8
5.8 8
550 8
592 8
670 8
685 8
744 8
798 8
836 8
895 8
986 8
AGE 8
Al 8
Ord 8
PAC 8
PG 8
ai 8
az 8
bab 8
badi 8
bb 8
board 8
ctor 8
drome 8
held 8
ien 8
ilo 8
imo 8
key 8
kh 8
lling 8
mm 8
ngi 8
ok 8
ong 8
ped 8
pot 8
rf 8
rop 8
rust 8
ré 8
sema 8
sor 8
tage 8
tesse 8
unk 8
ven 8
wich 8
win 8
wr 8
ze 8
zie 8
zze 8
ér 8
▁144 8
▁167 8
▁1873 8
▁1908 8
▁1911 8
▁1941 8
▁1972 8
▁2. 8
▁2014-2015 8
▁24. 8
▁74 8
▁87 8
▁AD 8
▁Adnan 8
▁Also 8
▁Arm 8
▁Arnhem 8
▁Bari 8
▁Boer 8
▁Brown 8
▁CD 8
▁Camp 8
▁Cher 8
▁Crew 8
▁Deput 8
▁Detroit 8
▁Development 8
▁Donald 8
▁Dua 8
▁Eindhoven 8
▁Eva 8
▁Faro 8
▁Fi 8
▁Fisher 8
▁Folk 8
▁Found 8
▁Ge 8
▁Geno 8
▁Giovanni 8
▁Helmut 8
▁Herald 8
▁Hussain 8
▁Jah 8
▁Jeff 8
▁Ji 8
▁Kir 8
▁Lamb 8
▁Latin 8
▁Mam 8
▁Marius 8
▁Match 8
▁Mog 8
▁Nikola 8
▁Number 8
▁Nur 8
▁Olive 8
▁Patriot 8
▁Paz 8
▁Pengu 8
▁Petersburg 8
▁Philippe 8
▁Provincial 8
▁Puig 8
▁Round 8
▁SN 8
▁Sha 8
▁Simon 8
▁Singer 8
▁Some 8
▁These 8
▁Tren 8
▁UC 8
▁Uk 8
▁Vaj 8
▁Val 8
▁Vala 8
▁Vázquez 8
▁Web 8
▁associa 8
▁cookie 8
▁destination 8
▁elements 8
▁events 8
▁explo 8
▁fat 8
▁firm 8
▁force 8
▁fra 8
▁host 8
▁keyboard 8
▁know 8
▁layout 8
▁lived 8
▁mas 8
▁offered 8
▁often 8
▁operation 8
▁pas 8
▁pick 8
▁rector 8
▁shum 8
▁side 8
▁tar 8
▁tax 8
▁tourist 8
▁via 8
▁years 8
,000,000 7
-02- 7
-19 7
-24 7
-36 7
/03/ 7
/22 7
0.00 7
0.7 7
00 7
02 7
112 7
156 7
1800 7
1983 7
464 7
484 7
5.6 7
507 7
54 7
67 7
678 7
771 7
79 7
790 7
888 7
AM 7
Ant 7
Count 7
ESA 7
HQ 7
Ja 7
TEC 7
Tech 7
ab 7
abb 7
aging 7
ania 7
anne 7
ayat 7
bag 7
berg 7
cker 7
enburg 7
ernes 7
fl 7
gro 7
hran 7
ika 7
illi 7
isto 7
ky 7
ler 7
mine 7
mira 7
nes 7
ntino 7
ora 7
owi 7
por 7
power 7
pt 7
quez 7
rise 7
rs 7
rst 7
sina 7
stein 7
ten 7
tiku 7
tiva 7
uld 7
und 7
uri 7
vine 7
wart 7
wick 7
zii 7
▁0-3 7
▁1. 7
▁1.8 7
▁111 7
▁142 7
▁153 7
▁170 7
▁221 7
▁3- 7
▁48 7
▁76 7
▁900 7
▁Admiral 7
▁After 7
▁Alessandro 7
▁Amateur 7
▁Anthony 7
▁Are 7
▁Area 7
▁Arma 7
▁Bara 7
▁Barisan 7
▁Baron 7
▁Beni 7
▁Berlusconi 7
▁Beth 7
▁Bible 7
▁Bola 7
▁Broadcast 7
▁Chap 7
▁Chelsea 7
▁Classic 7
▁Country 7
▁Cour 7
▁Culture 7
▁Democrat 7
▁Diego 7
▁Director 7
▁Does 7
▁Empire 7
▁Gary 7
▁Group 7
▁Hea 7
▁Head 7
▁Henry 7
▁Hul 7
▁Independen 7
▁Japanese 7
▁Kaduna 7
▁Kali 7
▁Kat 7
▁Kedah 7
▁Kemp 7
▁Kim 7
▁Km 7
▁LA 7
▁Leiden 7
▁Leon 7
▁Libya 7
▁Lie 7
▁Lion 7
▁Low 7
▁Ly 7
▁MD 7
▁Marcos 7
▁Metal 7
▁Moldova 7
▁Mun 7
▁Nawaz 7
▁OR 7
▁Of 7
▁Olimp 7
▁Origin 7
▁Other 7
▁Philips 7
▁Pi 7
▁Prince 7
▁Qara 7
▁Regina 7
▁Rus 7
▁SVE 7
▁Sanders 7
▁Sant 7
▁Scotland 7
▁Segunda 7
▁Sept 7
▁Sheikh 7
▁Silvi 7
▁Son 7
▁Sp 7
▁Staff 7
▁Studies 7
▁Sulaiman 7
▁Sweden 7
▁Trots 7
▁Valo 7
▁Varia 7
▁Vaz 7
▁Vec 7
▁Vigo 7
▁Wa 7
▁Wein 7
▁Westminster 7
▁Win 7
▁Wind 7
▁Zahar 7
▁absolute 7
▁asam 7
▁cities 7
▁cruise 7
▁designer 7
▁either 7
▁fruit 7
▁gets 7
▁gradu 7
▁high 7
▁horse 7
▁institut 7
▁large 7
▁leadership 7
▁magnitud 7
▁match 7
▁piano 7
▁protein 7
▁provided 7
▁raised 7
▁reality 7
▁recipe 7
▁residents 7
▁ru 7
▁secretar 7
▁she 7
▁should 7
▁sport 7
▁sugar 7
▁super 7
▁voice 7
▁volume 7
-30 6
/04/ 6
/25 6
1-3 6
168 6
2000 6
360 6
4.5 6
569 6
6.2 6
69 6
735 6
772 6
805 6
9000 6
96 6
990 6
ABI 6
Ce 6
It 6
Man 6
Michel 6
WB 6
alainen 6
ally 6
arreta 6
bashi 6
bra 6
com 6
fo 6
former 6
garri 6
godi 6
halo 6
har 6
head 6
hle 6
hman 6
hne 6
ically 6
iner 6
int 6
ird 6
istic 6
kav 6
kaz 6
ki 6
klasse 6
lania 6
lanta 6
mena 6
mons 6
mood 6
nah 6
nging 6
occupation 6
onio 6
pis 6
pta 6
rino 6
rut 6
rv 6
sec 6
sim 6
stitu 6
tensi 6
tov 6
tron 6
xas 6
zed 6
zil 6
▁1080 6
▁158 6
▁17. 6
▁1700 6
▁1872 6
▁1939 6
▁1952 6
▁1953 6
▁1961 6
▁1964 6
▁219 6
▁3000 6
▁350 6
▁5000 6
▁59 6
▁9. 6
▁97 6
▁Anadolu 6
▁Anand 6
▁Annie 6
▁Antonio 6
▁Aula 6
▁BS 6
▁Ball 6
▁Barry 6
▁Bel 6
▁Blank 6
▁Brasil 6
▁Bro 6
▁Budapest 6
▁Carlo 6
▁Chapel 6
▁Charlotte 6
▁Chris 6
▁Colour 6
▁Combat 6
▁Cookies 6
▁Deste 6
▁Disney 6
▁Drog 6
▁Edward 6
▁Exam 6
▁Ferguson 6
▁Fit 6
▁Gale 6
▁Garage 6
▁Gil 6
▁Gordon 6
▁Grave 6
▁Guitar 6
▁HA 6
▁HE 6
▁Hill 6
▁Hora 6
▁Horse 6
▁Inter 6
▁Jar 6
▁Jean 6
▁Jin 6
▁Justice 6
▁Kek 6
▁Khalid 6
▁Kiss 6
▁Kuba 6
▁Lam 6
▁Liga 6
▁Light 6
▁Llo 6
▁Luis 6
▁Manu 6
▁Marc 6
▁Marie 6
▁Miguel 6
▁Militar 6
▁Mis 6
▁Mother 6
▁Motion 6
▁Movement 6
▁Much 6
▁Observa 6
▁On 6
▁Part 6
▁Pat 6
▁Patel 6
▁Pick 6
▁Pir 6
▁Plastik 6
▁Polonia 6
▁Print 6
▁Puerto 6
▁Qua 6
▁Quattro 6
▁Qui 6
▁Reference 6
▁Rich 6
▁Roosevelt 6
▁Roque 6
▁ST 6
▁Spel 6
▁Stra 6
▁Studios 6
▁Universal 6
▁VA 6
▁Vladi 6
▁arra 6
▁art 6
▁auto 6
▁bata 6
▁bed 6
▁belo 6
▁bir 6
▁cep 6
▁concert 6
▁cuba 6
▁dance 6
▁design 6
▁dis 6
▁du 6
▁each 6
▁eventually 6
▁fact 6
▁features 6
▁fellow 6
▁foundation 6
▁g 6
▁give 6
▁hall 6
▁id 6
▁into 6
▁invent 6
▁making 6
▁notable 6
▁otherwise 6
▁picked 6
▁position 6
▁produce 6
▁publication 6
▁ra 6
▁respective 6
▁roman 6
▁root 6
▁round 6
▁rupiah 6
▁sen 6
▁shown 6
▁since 6
▁stage 6
▁ster 6
▁vari 6
▁vice 6
-10 5
-10- 5
-28 5
0-1 5
0.8 5
002 5
07. 5
1.2 5
145 5
151 5
188 5
1961 5
2.6 5
204 5
250 5
265 5
290 5
3-5 5
348 5
350 5
4.1 5
456 5
476 5
5- 5
539 5
66 5
73 5
734 5
8000 5
82 5
AJ 5
AMA 5
AS 5
HA 5
HE 5
HP 5
NZ 5
U 5
ah 5
and 5
ang 5
ap 5
appoint 5
arth 5
atto 5
bale 5
bert 5
born 5
cht 5
cka 5
cked 5
cules 5
dale 5
dia 5
dija 5
dome 5
dyk 5
ean 5
esque 5
estro 5
flu 5
fred 5
fu 5
his 5
hri 5
ified 5
ilt 5
ines 5
izo 5
kih 5
lari 5
led 5
lines 5
lls 5
mere 5
mmer 5
nde 5
nemu 5
neo 5
nia 5
nique 5
nist 5
pari 5
pila 5
rib 5
row 5
schap 5
sins 5
spor 5
stern 5
steroid 5
tre 5
téri 5
tă 5
via 5
vil 5
virus 5
wa 5
wi 5
wyn 5
yaz 5
ying 5
ște 5
▁1- 5
▁1.1 5
▁130 5
▁147 5
▁161 5
▁166 5
▁1868 5
▁1878 5
▁1896 5
▁1929 5
▁1948 5
▁1978 5
▁2002 5
▁3.5 5
▁4.0 5
▁400 5
▁55 5
▁6- 5
▁62 5
▁83 5
▁84 5
▁90 5
▁AA 5
▁AM 5
▁Abe 5
▁Aceh 5
▁Although 5
▁Ander 5
▁Anni 5
▁Basketball 5
▁Bod 5
▁Bologna 5
▁Brian 5
▁Castro 5
▁Clan 5
▁Cold 5
▁Colin 5
▁Colli 5
▁Comic 5
▁Comput 5
▁Computer 5
▁Construction 5
▁Corporation 5
▁Danish 5
▁During 5
▁Dyna 5
▁ED 5
▁Eis 5
▁First 5
▁GA 5
▁Gas 5
▁Ger 5
▁Gradu 5
▁Guara 5
▁HAL 5
▁Have 5
▁Horn 5
▁Hui 5
▁Husk 5
▁Jerry 5
▁Johnny 5
▁KY 5
▁Kai 5
▁Kazan 5
▁Kel 5
▁Ker 5
▁Kurd 5
▁Lamborghini 5
▁Legion 5
▁Lewis 5
▁Liberal 5
▁Lord 5
▁Machine 5
▁Major 5
▁Martínez 5
▁Max 5
▁Melbourne 5
▁Mes 5
▁Mest 5
▁Mo 5
▁Mora 5
▁Most 5
▁Mussolini 5
▁Numa 5
▁Ord 5
▁Original 5
▁PC 5
▁Pa 5
▁Pak 5
▁Palla 5
▁Pap 5
▁Philip 5
▁Pictures 5
▁Point 5
▁Popular 5
▁Por 5
▁Power 5
▁Prague 5
▁Research 5
▁Rica 5
▁Ring 5
▁Rob 5
▁Route 5
▁Rubi 5
▁Sadiq 5
▁Sanat 5
▁Schä 5
▁Serbia 5
▁Shin 5
▁Sob 5
▁Sta 5
▁Stadion 5
▁Vienna 5
▁Warto 5
▁While 5
▁Written 5
▁Yong 5
▁Zaragoza 5
▁Zor 5
▁aka 5
▁although 5
▁ban 5
▁becoming 5
▁beginning 5
▁bomb 5
▁capable 5
▁claim 5
▁close 5
▁coin 5
▁conference 5
▁consist 5
▁defender 5
▁duo 5
▁employees 5
▁equip 5
▁hat 5
▁himself 5
▁hold 5
▁impressive 5
▁initial 5
▁international 5
▁liter 5
▁magistrat 5
▁maximum 5
▁preparation 5
▁provides 5
▁public 5
▁re 5
▁relative 5
▁român 5
▁rota 5
▁seconds 5
▁sister 5
▁song 5
▁soup 5
▁strong 5
▁su 5
▁teams 5
▁trip 5
▁unit 5
▁vocal 5
▁works 5
-06 4
-5 4
.12. 4
08 4
10000 4
114 4
125 4
173 4
1969 4
2006 4
30 4
372 4
377 4
4.6 4
443 4
497 4
609 4
653 4
7.9 4
8.2 4
858 4
887 4
91 4
989 4
999 4
ADO 4
ATI 4
American 4
BI 4
CT 4
Du 4
ID 4
II 4
P 4
PT 4
Page 4
SET 4
TH 4
WI 4
WW 4
XC 4
aga 4
als 4
ament 4
anum 4
aria 4
bha 4
bon 4
cata 4
cello 4
chy 4
cor 4
court 4
ct 4
di 4
dique 4
divi 4
dom 4
dze 4
ell 4
ffe 4
fine 4
flo 4
fun 4
gala 4
gano 4
garde 4
gua 4
hin 4
hod 4
hok 4
hub 4
ite 4
ive 4
ix 4
lam 4
lb 4
lianza 4
line 4
lott 4
maker 4
mark 4
mell 4
meri 4
mie 4
mit 4
mon 4
mos 4
nder 4
nem 4
nga 4
nici 4
opera 4
osi 4
our 4
owski 4
ox 4
pat 4
penda 4
pha 4
ps 4
rk 4
shot 4
sie 4
ska 4
stö 4
ties 4
tis 4
tors 4
zia 4
ä 4
ünde 4
▁00 4
▁04 4
▁1,2 4
▁102 4
▁112 4
▁121 4
▁180 4
▁1800 4
▁185 4
▁1937 4
▁1947 4
▁1967 4
▁2014. 4
▁214 4
▁265 4
▁28. 4
▁31.12. 4
▁4500 4
▁500 4
▁64 4
▁80 4
▁925 4
▁Aar 4
▁Affiliate 4
▁Alliance 4
▁Ambient 4
▁Ambros 4
▁Angela 4
▁Arif 4
▁Asociación 4
▁Baj 4
▁Benedict 4
▁Bone 4
▁Book 4
▁Bridge 4
▁Bunga 4
▁Bush 4
▁Bütün 4
▁CE 4
▁Cam 4
▁Canyon 4
▁Chung 4
▁Com 4
▁Create 4
▁Cuba 4
▁Cur 4
▁Defender 4
▁Dha 4
▁Disciplin 4
▁Dou 4
▁Drake 4
▁Edmund 4
▁Em 4
▁Eugen 4
▁Fair 4
▁Fir 4
▁Four 4
▁François 4
▁From 4
▁Futbol 4
▁Gates 4
▁González 4
▁Guan 4
▁Gün 4
▁Haag 4
▁Harry 4
▁Having 4
▁Holding 4
▁However 4
▁Hunter 4
▁Hüseyin 4
▁IV 4
▁Ibiza 4
▁Jamie 4
▁Je 4
▁Kapit 4
▁Kas 4
▁Kell 4
▁Key 4
▁Kho 4
▁Köln 4
▁Language 4
▁Limited 4
▁Little 4
▁MB 4
▁Made 4
▁Magistr 4
▁Manager 4
▁Maya 4
▁Mechanic 4
▁Merkel 4
▁Milo 4
▁Mitchell 4
▁Mod 4
▁Mona 4
▁NY 4
▁Najib 4
▁Nov 4
▁OB 4
▁Ort 4
▁Out 4
▁Palace 4
▁Paper 4
▁Portugal 4
▁Pot 4
▁Properties 4
▁Pure 4
▁Rally 4
▁Rapid 4
▁Razak 4
▁Red 4
▁Rede 4
▁Rick 4
▁Rox 4
▁Ru 4
▁SSD 4
▁Samuel 4
▁Sanchez 4
▁Scr 4
▁Society 4
▁Sofia 4
▁Spo 4
▁Sr 4
▁Stor 4
▁Study 4
▁Su 4
▁Syria 4
▁Sánchez 4
▁Tapi 4
▁Top 4
▁Trade 4
▁Ud 4
▁Universitat 4
▁Var 4
▁Victoria 4
▁Violet 4
▁Wars 4
▁Wood 4
▁Zak 4
▁acquire 4
▁af 4
▁alter 4
▁ama 4
▁arro 4
▁astronaut 4
▁b 4
▁basketbal 4
▁behalf 4
▁behind 4
▁ben 4
▁big 4
▁boas 4
▁bran 4
▁citrus 4
▁clar 4
▁comme 4
▁commerce 4
▁compliment 4
▁concerned 4
▁connection 4
▁converti 4
▁cookies 4
▁described 4
▁different 4
▁distribu 4
▁ego 4
▁electro 4
▁em 4
▁ending 4
▁english 4
▁episode 4
▁factor 4
▁fiction 4
▁focused 4
▁follow 4
▁gives 4
▁greater 4
▁hotel 4
▁impact 4
▁instrumental 4
▁juris 4
▁king 4
▁leading 4
▁majority 4
▁master 4
▁may 4
▁medium 4
▁minister 4
▁museum 4
▁obtain 4
▁occur 4
▁offers 4
▁opp 4
▁palm 4
▁par 4
▁past 4
▁patron 4
▁peso 4
▁pl 4
▁popula 4
▁primary 4
▁produc 4
▁professional 4
▁put 4
▁radio 4
▁recipient 4
▁rib 4
▁role 4
▁senator 4
▁soul 4
▁start 4
▁still 4
▁studies 4
▁therefore 4
▁third 4
▁throughout 4
▁tons 4
▁trainer 4
▁travel 4
▁trombo 4
▁usually 4
▁various 4
▁version 4
▁veteran 4
▁weight 4
▁what 4
▁wide 4
▁working 4
-08- 3
-32 3
-52 3
/10/ 3
/18 3
/19 3
06. 3
153 3
1930 3
233 3
248 3
3,000 3
3,9 3
304 3
345 3
4000 3
42 3
469 3
6.5 3
64 3
672 3
682 3
686 3
72 3
765 3
784 3
9.9 3
BL 3
CY 3
DL 3
He 3
Math 3
Mil 3
NJ 3
President 3
Roma 3
SD 3
SK 3
SV 3
Sha 3
The 3
Unione 3
WD 3
angka 3
arrow 3
aw 3
bau 3
baz 3
bian 3
cade 3
cati 3
city 3
class 3
ctu 3
dier 3
distri 3
dod 3
dori 3
dow 3
dy 3
ecta 3
ents 3
fili 3
foni 3
force 3
ges 3
gnu 3
gui 3
hale 3
hard 3
has 3
heer 3
hero 3
hrá 3
iant 3
iche 3
igante 3
ight 3
issement 3
ius 3
iyah 3
kal 3
kala 3
king 3
kler 3
log 3
mal 3
mba 3
meer 3
meter 3
milla 3
mper 3
mpo 3
mán 3
nin 3
ning 3
nis 3
nos 3
ná 3
od 3
olo 3
org 3
pf 3
pind 3
pire 3
post 3
public 3
rahan 3
ri 3
rina 3
rón 3
shes 3
spe 3
stedt 3
stick 3
style 3
system 3
tak 3
trag 3
tran 3
tut 3
uce 3
uk 3
une 3
ura 3
vajo 3
vol 3
wall 3
wl 3
wn 3
ws 3
yam 3
zio 3
áil 3
é 3
ù 3
Ş 3
şə 3
▁01 3
▁1,1 3
▁1,5 3
▁1.7 3
▁184 3
▁1865 3
▁1891 3
▁19. 3
▁1921 3
▁1965 3
▁1973 3
▁2.4 3
▁2012 3
▁230 3
▁234 3
▁330 3
▁340 3
▁73 3
▁93 3
▁AE 3
▁Aber 3
▁Amazing 3
▁Andersson 3
▁Andreea 3
▁Anwar 3
▁Available 3
▁Ave 3
▁Basi 3
▁Belgrad 3
▁Bir 3
▁Books 3
▁Bou 3
▁Brut 3
▁Bry 3
▁CR 3
▁Capital 3
▁Champions 3
▁Cho 3
▁Christopher 3
▁Class 3
▁Classifica 3
▁Coco 3
▁Command 3
▁Dec 3
▁Decora 3
▁Defense 3
▁Delfi 3
▁Emp 3
▁Está 3
▁Ethiopian 3
▁Favorit 3
▁Feb 3
▁Gerais 3
▁Germania 3
▁Gi 3
▁Gian 3
▁Glass 3
▁Gori 3
▁Gram 3
▁Gustav 3
▁Gö 3
▁Hab 3
▁Hon 3
▁ID 3
▁Iran 3
▁Jamal 3
▁Joachim 3
▁Jordan 3
▁KA 3
▁Kami 3
▁Kap 3
▁Kend 3
▁Kill 3
▁Kilometer 3
▁Klub 3
▁Kota 3
▁LLC 3
▁Leader 3
▁Les 3
▁Library 3
▁Lin 3
▁Link 3
▁Luz 3
▁Manufa 3
▁Mao 3
▁Mauri 3
▁McC 3
▁Media 3
▁Minas 3
▁Mind 3
▁Minnesota 3
▁Mobil 3
▁Mu 3
▁Musical 3
▁Mö 3
▁Naka 3
▁Negre 3
▁Niger 3
▁Norbert 3
▁Norway 3
▁Now 3
▁Oleh 3
▁Opera 3
▁Owen 3
▁Palm 3
▁Pesca 3
▁Pilot 3
▁Portland 3
▁Publisher 3
▁Putin 3
▁Qarabağ 3
▁Qas 3
▁Rafael 3
▁Rene 3
▁René 3
▁Retro 3
▁Revolution 3
▁Rod 3
▁Romano 3
▁Rund 3
▁Saint 3
▁Sama 3
▁Satellite 3
▁Sch 3
▁Scha 3
▁Schon 3
▁Suc 3
▁Tea 3
▁Team 3
▁Tech 3
▁Territorial 3
▁Theresa 3
▁Tiger 3
▁Tri 3
▁Under 3
▁Unit 3
▁VW 3
▁Vladimir 3
▁Water 3
▁Well 3
▁Ze 3
▁actually 3
▁addiction 3
▁addition 3
▁appearance 3
▁arena 3
▁arts 3
▁avant 3
▁bath 3
▁bi 3
▁books 3
▁ca 3
▁call 3
▁capacity 3
▁capitol 3
▁chance 3
▁college 3
▁commemora 3
▁component 3
▁council 3
▁dead 3
▁distingui 3
▁distributor 3
▁dy 3
▁earn 3
▁example 3
▁expon 3
▁failed 3
▁failure 3
▁famous 3
▁field 3
▁fin 3
▁fus 3
▁gem 3
▁got 3
▁here 3
▁honey 3
▁if 3
▁k 3
▁kind 3
▁lett 3
▁lie 3
▁literature 3
▁mayo 3
▁meal 3
▁men 3
▁minimum 3
▁mode 3
▁monarch 3
▁not 3
▁nu 3
▁only 3
▁pad 3
▁pale 3
▁predomina 3
▁prime 3
▁real 3
▁refer 3
▁remain 3
▁rolle 3
▁romano 3
▁rooms 3
▁rule 3
▁sand 3
▁saw 3
▁science 3
▁scrap 3
▁shi 3
▁sio 3
▁sol 3
▁sold 3
▁spa 3
▁spare 3
▁synth 3
▁takes 3
▁term 3
▁them 3
▁these 3
▁through 3
▁together 3
▁us 3
▁very 3
▁virus 3
▁vote 3
▁winner 3
▁Éireann 3
-23 2
/09/ 2
/2 2
/20 2
1,5 2
1/ 2
102 2
116 2
123 2
1936 2
1976 2
1987 2
1989 2
229 2
301 2
310 2
40,000 2
434 2
437 2
438 2
50 2
50,000 2
573 2
6.9 2
61 2
62 2
637 2
698 2
7.6 2
755 2
77 2
81 2
867 2
877 2
9.7 2
Arti 2
B 2
Centr 2
Donald 2
EAT 2
EMI 2
Eng 2
Ham 2
ICE 2
ISS 2
LK 2
Ma 2
Me 2
Mer 2
NV 2
Ne 2
No 2
PN 2
SB 2
Sc 2
Se 2
TE 2
TW 2
Tu 2
Uni 2
Y 2
agoa 2
aka 2
aki 2
ario 2
artiste 2
based 2
bie 2
bler 2
date 2
dian 2
diens 2
eh 2
employed 2
enko 2
ett 2
fe 2
flower 2
form 2
gi 2
gia 2
gos 2
gov 2
han 2
heat 2
hni 2
hoor 2
iah 2
ics 2
iga 2
ill 2
illas 2
ire 2
jis 2
ken 2
kkaus 2
ković 2
ks 2
lan 2
lander 2
lings 2
lk 2
llis 2
llustrator 2
locat 2
loo 2
lä 2
marin 2
mini 2
modern 2
mpia 2
nda 2
ness 2
nt 2
nı 2
of 2
phon 2
phy 2
pied 2
pine 2
play 2
prop 2
qui 2
rar 2
rari 2
rle 2
rov 2
rovi 2
send 2
shi 2
sian 2
sic 2
sila 2
spi 2
sted 2
stre 2
tan 2
tely 2
type 2
tz 2
tı 2
ubi 2
uca 2
ugh 2
uli 2
una 2
ures 2
usi 2
ux 2
viy 2
város 2
walk 2
wana 2
was 2
wał 2
which 2
winning 2
www 2
wärts 2
| 2
ärt 2
ō 2
▁-- 2
▁// 2
▁1,4 2
▁1,9 2
▁1200 2
▁140 2
▁155 2
▁156 2
▁177 2
▁1875 2
▁189 2
▁1944 2
▁1949 2
▁1960 2
▁1968 2
▁2,7 2
▁2.5 2
▁2003. 2
▁2006. 2
▁2009. 2
▁25. 2
▁270 2
▁32 2
▁43 2
▁470 2
▁5- 2
▁53 2
▁63 2
▁7. 2
▁720 2
▁800 2
▁9001 2
▁950 2
▁96 2
▁AI 2
▁Administrator 2
▁Ahora 2
▁Alle 2
▁Aman 2
▁Andreas 2
▁Anne 2
▁Anth 2
▁Architect 2
▁Artist 2
▁Asia 2
▁Asocia 2
▁Aug 2
▁Author 2
▁Bal 2
▁Bala 2
▁Bank 2
▁Baptist 2
▁Barcelona 2
▁Barne 2
▁Bart 2
▁Basket 2
▁Before 2
▁Beginn 2
▁Benjamin 2
▁Bernard 2
▁Blanco 2
▁Boz 2
▁Brenn 2
▁Bruce 2
▁CF 2
▁CT 2
▁Carl 2
▁Cas 2
▁Cell 2
▁Chicken 2
▁Chuck 2
▁Code 2
▁Complete 2
▁Compostela 2
▁Concert 2
▁Condi 2
▁Cre 2
▁Câ 2
▁Dark 2
▁Deb 2
▁Dušan 2
▁Ec 2
▁Een 2
▁Elect 2
▁Ever 2
▁Exchange 2
▁Eye 2
▁Fantasy 2
▁Far 2
▁Fin 2
▁Finn 2
▁Forest 2
▁Fost 2
▁Fran 2
▁Friends 2
▁GROUP 2
▁Gem 2
▁Giro 2
▁Haar 2
▁Helle 2
▁Hockey 2
▁Hoga 2
▁Honey 2
▁Hoofd 2
▁Hugo 2
▁Hungary 2
▁Industrie 2
▁Iron 2
▁JP 2
▁Josef 2
▁Kash 2
▁Kate 2
▁Kennedy 2
▁Kentucky 2
▁Las 2
▁Let 2
▁Like 2
▁Lucky 2
▁Luxury 2
▁MS 2
▁Madeleine 2
▁Malik 2
▁Maro 2
▁Masa 2
▁Mat 2
▁Movie 2
▁Mug 2
▁Muhammad 2
▁Oost 2
▁Ore 2
▁PAS 2
▁PR 2
▁Palacio 2
▁Pay 2
▁Pea 2
▁Peda 2
▁Perse 2
▁Phil 2
▁Produc 2
▁Production 2
▁Quin 2
▁Rafi 2
▁Raj 2
▁Ralph 2
▁Rap 2
▁Reality 2
▁Regi 2
▁Romani 2
▁Romero 2
▁Rup 2
▁Sami 2
▁Santiago 2
▁Sapi 2
▁Schu 2
▁Schul 2
▁Scot 2
▁Second 2
▁Sedan 2
▁Senator 2
▁Session 2
▁Since 2
▁Slav 2
▁Sper 2
▁Spon 2
▁Str 2
▁Swe 2
▁TN 2
▁TS 2
▁Tada 2
▁Tall 2
▁Tehran 2
▁Türk 2
▁Ukraine 2
▁Valentin 2
▁Valor 2
▁Vei 2
▁Vino 2
▁Vit 2
▁Volkswagen 2
▁Wang 2
▁Wasser 2
▁Wellington 2
▁When 2
▁Wir 2
▁Ye 2
▁You 2
▁additional 2
▁advise 2
▁am 2
▁any 2
▁apple 2
▁authority 2
▁automobile 2
▁bay 2
▁below 2
▁bombe 2
▁bunga 2
▁carried 2
▁cel 2
▁child 2
▁circa 2
▁control 2
▁corn 2
▁could 2
▁create 2
▁developer 2
▁dia 2
▁din 2
▁do 2
▁dollar 2
▁down 2
▁everything 2
▁examine 2
▁feature 2
▁fight 2
▁fl 2
▁formal 2
▁forward 2
▁fren 2
▁fritt 2
▁function 2
▁further 2
▁gang 2
▁gave 2
▁going 2
▁hero 2
▁hon 2
▁hp 2
▁http 2
▁identified 2
▁incident 2
▁incorpora 2
▁india 2
▁italian 2
▁je 2
▁knows 2
▁labour 2
▁legislativ 2
▁link 2
▁major 2
▁membership 2
▁mobil 2
▁mono 2
▁needed 2
▁no 2
▁numbers 2
▁obviously 2
▁occ 2
▁og 2
▁ore 2
▁organiz 2
▁ort 2
▁page 2
▁pak 2
▁pane 2
▁parti 2
▁participant 2
▁percussi 2
▁performance 2
▁perse 2
▁petrol 2
▁pianist 2
▁places 2
▁prepared 2
▁profession 2
▁progressive 2
▁prominent 2
▁provide 2
▁province 2
▁ranking 2
▁republica 2
▁requires 2
▁result 2
▁runs 2
▁said 2
▁sent 2
▁server 2
▁services 2
▁simply 2
▁snack 2
▁socialist 2
▁sola 2
▁source 2
▁specifically 2
▁spend 2
▁stand 2
▁ste 2
▁string 2
▁stroke 2
▁study 2
▁tempore 2
▁territor 2
▁though 2
▁thought 2
▁three 2
▁tv 2
▁utilize 2
▁von 2
▁walked 2
▁way 2
▁website 2
▁whole 2
▁× 2
▁İstanbul 2
▁Şehit 2
+ 1
-18 1
.10. 1
/01/ 1
/05 1
/11/ 1
/13 1
/17 1
/2004 1
/2005 1
/2013 1
/24 1
/7 1
00.00 1
09. 1
1,2 1
1000 1
110 1
1941 1
1947 1
1964 1
1966 1
1967 1
1986 1
1996 1
2,000 1
2,3 1
2002 1
2004 1
2005 1
2009 1
2013 1
3,5 1
3.2 1
337 1
367 1
37 1
387 1
467 1
5,9 1
6,6 1
70,000 1
792 1
8.6 1
: 1
:1 1
AKA 1
AUD 1
Air 1
Andre 1
Ar 1
BN 1
Ba 1
Book 1
Business 1
CC 1
City 1
Cor 1
English 1
FL 1
GA 1
GM 1
GT 1
Ga 1
Hu 1
KW 1
Ku 1
League 1
Li 1
NN 1
OB 1
Peter 1
QA 1
QE 1
Te 1
United 1
VIA 1
Va 1
White 1
able 1
ace 1
afi 1
ag 1
alaba 1
ance 1
andi 1
anno 1
ano 1
any 1
ates 1
avour 1
away 1
bak 1
baka 1
ball 1
berri 1
berry 1
black 1
bles 1
book 1
brook 1
bul 1
cat 1
cer 1
cm 1
cto 1
cycli 1
dies 1
dige 1
dne 1
dors 1
dra 1
drin 1
drive 1
ebat 1
ec 1
ece 1
edel 1
emp 1
engine 1
entia 1
eria 1
ert 1
eti 1
fest 1
filia 1
final 1
for 1
gan 1
gde 1
gen 1
genti 1
ghe 1
gina 1
gr 1
gra 1
graphic 1
gé 1
hat 1
hockey 1
how 1
hr 1
há 1
iam 1
ici 1
idas 1
ide 1
ief 1
ier 1
igne 1
ile 1
inf 1
inta 1
ionis 1
ireann 1
isty 1
itas 1
ium 1
ivo 1
izar 1
ized 1
ju 1
kovic 1
lasting 1
law 1
leigh 1
lich 1
lov 1
lys 1
main 1
mand 1
mbi 1
mil 1
mur 1
nada 1
ndu 1
nett 1
ngar 1
nger 1
nna 1
non 1
nous 1
nu 1
odon 1
off 1
og 1
ological 1
oni 1
ons 1
ore 1
oto 1
ott 1
ou 1
ounded 1
outlook 1
oval 1
page 1
pah 1
pani 1
pen 1
pit 1
pping 1
president 1
pris 1
quin 1
rat 1
rect 1
related 1
ren 1
rial 1
riko 1
risti 1
road 1
rock 1
río 1
san 1
seen 1
sert 1
sku 1
soci 1
sol 1
sons 1
spite 1
sson 1
star 1
stell 1
tal 1
tele 1
titude 1
together 1
trus 1
turer 1
tö 1
uis 1
umas 1
veld 1
vor 1
ways 1
wed 1
while 1
zar 1
ß 1
ère 1
ño 1
ú 1
▁0,5 1
▁0.5 1
▁06 1
▁1,6 1
▁1,8 1
▁1.0 1
▁11. 1
▁117 1
▁13, 1
▁14. 1
▁141 1
▁160 1
▁165 1
▁18.00 1
▁187 1
▁1885 1
▁1935 1
▁1995. 1
▁2,0 1
▁2,1 1
▁2,2 1
▁2,4 1
▁20- 1
▁2004. 1
▁2005. 1
▁2007 1
▁2013. 1
▁2015. 1
▁216 1
▁22. 1
▁28, 1
▁3,5 1
▁3.0 1
▁325 1
▁6. 1
▁69 1
▁9- 1
▁91 1
▁< 1
▁> 1
▁ASC 1
▁Ac 1
▁And 1
▁Aristo 1
▁Att 1
▁Auckland 1
▁Avant 1
▁Ax 1
▁Basil 1
▁Bass 1
▁Bianca 1
▁Bla 1
▁Body 1
▁Bron 1
▁Buiten 1
▁Bă 1
▁CH 1
▁Celsius 1
▁Cha 1
▁Close 1
▁Competi 1
▁Compre 1
▁Concret 1
▁Cons 1
▁Cookie 1
▁Cream 1
▁Cru 1
▁Current 1
▁Danes 1
▁Dos 1
▁Drew 1
▁Dro 1
▁Dw 1
▁EN 1
▁Economy 1
▁Eisen 1
▁Electronic 1
▁Europe 1
▁Fas 1
▁Final 1
▁Floor 1
▁Full 1
▁Fun 1
▁Fusion 1
▁GD 1
▁Govern 1
▁Gábor 1
▁HAR 1
▁Happ 1
▁Has 1
▁Haz 1
▁Heinrich 1
▁Heli 1
▁Here 1
▁Hugh 1
▁IS 1
▁IT 1
▁Jesus 1
▁Jesús 1
▁Johannesburg 1
▁Julian 1
▁Julius 1
▁Junior 1
▁Ka 1
▁Kevin 1
▁Kh 1
▁Kid 1
▁Kings 1
▁Kirk 1
▁Label 1
▁Later 1
▁Law 1
▁Literatur 1
▁Local 1
▁Lond 1
▁Looking 1
▁MAT 1
▁Mana 1
▁Mari 1
▁Marti 1
▁Metro 1
▁Mi 1
▁Mil 1
▁Money 1
▁Mountain 1
▁NA 1
▁Nach 1
▁Noord 1
▁Novel 1
▁Ní 1
▁Oak 1
▁Oct 1
▁Officer 1
▁Ofte 1
▁Once 1
▁Only 1
▁Oy 1
▁Padang 1
▁Period 1
▁Pf 1
▁PhD 1
▁Picture 1
▁Pl 1
▁Play 1
▁Politic 1
▁Presiden 1
▁Pérez 1
▁Related 1
▁Rep 1
▁Rice 1
▁Rico 1
▁SI 1
▁SS 1
▁Sau 1
▁Ser 1
▁Series 1
▁Servi 1
▁Similar 1
▁Slu 1
▁Sony 1
▁Stand 1
▁Start 1
▁Ster 1
▁Student 1
▁Sve 1
▁Swa 1
▁Tala 1
▁Tap 1
▁Then 1
▁Those 1
▁Three 1
▁Til 1
▁Today 1
▁Tourism 1
▁Tradition 1
▁Trip 1
▁Tro 1
▁Type 1
▁UN 1
▁Univers 1
▁Us 1
▁Vegeta 1
▁Vehicle 1
▁Vo 1
▁Von 1
▁Vos 1
▁Warner 1
▁Where 1
▁Yama 1
▁Zeland 1
▁` 1
▁ac 1
▁achieve 1
▁acqua 1
▁actor 1
▁add 1
▁adding 1
▁administrat 1
▁administrative 1
▁administrator 1
▁adult 1
▁ambient 1
▁amount 1
▁ans 1
▁anti 1
▁api 1
▁appears 1
▁approximately 1
▁areas 1
▁around 1
▁ass 1
▁assign 1
▁associations 1
▁au 1
▁baad 1
▁bany 1
▁barn 1
▁baseball 1
▁bases 1
▁basis 1
▁because 1
▁best 1
▁bl 1
▁bo 1
▁board 1
▁border 1
▁brother 1
▁business 1
▁carb 1
▁carry 1
▁center 1
▁central 1
▁channel 1
▁che 1
▁chief 1
▁chocolate 1
▁chu 1
▁ci 1
▁circuit 1
▁claims 1
▁coinciden 1
▁collabora 1
▁colo 1
▁color 1
▁colors 1
▁comma 1
▁commence 1
▁compare 1
▁competition 1
▁complet 1
▁complete 1
▁conce 1
▁concrete 1
▁consum 1
▁continues 1
▁copie 1
▁covered 1
▁cr 1
▁creation 1
▁credit 1
▁crisis 1
▁croc 1
▁culture 1
▁curi 1
▁day 1
▁deg 1
▁demo 1
▁des 1
▁details 1
▁devo 1
▁dicta 1
▁dies 1
▁div 1
▁does 1
▁domain 1
▁dominant 1
▁drone 1
▁easily 1
▁efforts 1
▁eh 1
▁el 1
▁electr 1
▁electronic 1
▁employ 1
▁employee 1
▁employer 1
▁en 1
▁enjoyed 1
▁enter 1
▁enti 1
▁even 1
▁event 1
▁ew 1
▁exact 1
▁exactly 1
▁except 1
▁f 1
▁facility 1
▁fantasy 1
▁favourite 1
▁fi 1
▁figure 1
▁fire 1
▁fitte 1
▁five 1
▁fle 1
▁fly 1
▁focus 1
▁format 1
▁fossil 1
▁fro 1
▁fun 1
▁goes 1
▁governo 1
▁grad 1
▁gre 1
▁groupe 1
▁guard 1
▁hear 1
▁heard 1
▁help 1
▁highly 1
▁homes 1
▁honor 1
▁hospital 1
▁hours 1
▁however 1
▁husband 1
▁i 1
▁ia 1
▁important 1
▁ina 1
▁inclusi 1
▁indian 1
▁indonesia 1
▁infant 1
▁informal 1
▁information 1
▁inside 1
▁interest 1
▁interested 1
▁intern 1
▁introduce 1
▁isa 1
▁ital 1
▁ja 1
▁joh 1
▁journey 1
▁ked 1
▁ki 1
▁kilo 1
▁kurd 1
▁l 1
▁latest 1
▁list 1
▁little 1
▁lo 1
▁loca 1
▁lost 1
▁lot 1
▁loyal 1
▁ly 1
▁madri 1
▁mange 1
▁manufa 1
▁martyr 1
▁mata 1
▁material 1
▁math 1
▁media 1
▁metro 1
▁mile 1
▁mini 1
▁minor 1
▁minus 1
▁miss 1
▁money 1
▁month 1
▁movement 1
▁mus 1
▁need 1
▁nice 1
▁numerous 1
▁nutrition 1
▁occupa 1
▁od 1
▁offer 1
▁orang 1
▁organise 1
▁owners 1
▁pa 1
▁participants 1
▁pay 1
▁pesos 1
▁placed 1
▁plane 1
▁planes 1
▁planet 1
▁port 1
▁possess 1
▁pr 1
▁precio 1
▁prepare 1
▁present 1
▁presidenti 1
▁press 1
▁primari 1
▁prior 1
▁products 1
▁programme 1
▁projects 1
▁provisional 1
▁psych 1
▁pur 1
▁que 1
▁ran 1
▁rea 1
▁reach 1
▁recently 1
▁recruit 1
▁released 1
▁rep 1
▁responsibility 1
▁responsible 1
▁rich 1
▁ros 1
▁rules 1
▁sad 1
▁sami 1
▁say 1
▁seal 1
▁secret 1
▁show 1
▁showed 1
▁shows 1
▁sil 1
▁six 1
▁slang 1
▁soc 1
▁sources 1
▁speciali 1
▁speech 1
▁spending 1
▁standard 1
▁starter 1
▁street 1
▁stretch 1
▁structure 1
▁studio 1
▁substance 1
▁substantial 1
▁summit 1
▁t 1
▁take 1
▁taking 1
▁tej 1
▁television 1
▁th 1
▁theatr 1
▁things 1
▁those 1
▁times 1
▁tot 1
▁true 1
▁turk 1
▁turned 1
▁u 1
▁ultima 1
▁un 1
▁univers 1
▁unsur 1
▁until 1
▁v 1
▁value 1
▁var 1
▁variety 1
▁vehicles 1
▁venue 1
▁versus 1
▁vir 1
▁wad 1
▁want 1
▁win 1
▁wonder 1
▁x 1
▁yet 1
▁zero 1
▁zone 1
madeupword0000 0
madeupword0001 0
madeupword0002 0
madeupword0003 0
madeupword0004 0
