[TRIPLE] 112216
[PRED] 74828
[SUB] 74828
[ENT] 37388
▁description 37388
[en_XX] 12876
, 12475
. 10661
s 9738
▁United 7313
▁A 7033
▁States 6976
▁of 6974
) 6677
▁( 6616
er 3140
▁country 2976
▁ 2790
▁language 2477
▁County 2468
▁New 2320
▁place 2231
▁American 2147
▁leader 2145
▁Texas 2044
▁Al 2031
▁birth 1981
a 1978
▁name 1953
▁the 1950
C 1944
e 1823
▁Airport 1799
▁is 1748
- 1723
o 1682
▁location 1675
n 1662
▁part 1589
▁University 1544
▁and 1543
0.0 1498
h 1334
▁club 1302
▁music 1268
▁in 1235
y 1197
in 1164
▁Indiana 1105
t 1098
metre 1094
▁Alan 1086
/ 1049
nic 1014
▁B 1011
▁et 1010
▁group 1006
▁English 993
▁Washington 985
▁California 979
▁F 969
i 962
ed 940
▁city 938
r 936
▁International 919
way 910
▁genre 902
▁D 900
▁band 876
▁di 848
▁Ba 846
as 830
ya 820
▁York 810
tive 764
▁date 763
▁at 762
ton 760
▁national 760
es 759
S 758
th 748
d 735
▁Air 734
▁Jersey 730
▁capital 730
▁Aaron 719
▁City 712
kilo 706
▁associated 700
' 698
▁Georgia 698
▁11 696
▁Italy 696
▁Spain 690
ated 689
soci 689
▁artist 689
▁musical 689
▁FC 679
▁number 678
square 674
ch 656
▁ingredient 647
▁De 646
▁Apollo 638
▁War 638
al 635
▁death 635
▁region 616
▁run 616
▁The 613
em 610
▁India 598
na 583
char 581
▁S 580
▁II 574
ity 573
▁kilometre 572
▁Aarhus 571
an 562
▁Institute 562
▁origin 558
▁Kingdom 557
▁In 556
▁Martin 556
▁Austin 552
▁Indonesia 548
▁Anders 536
▁Bak 535
▁African 520
▁Technology 520
sh 517
▁William 512
con 508
sio 507
▁John 506
k 504
ic 503
▁Mexico 502
▁Na 500
▁engine 500
▁3 499
▁Ar 497
ation 495
▁O 495
son 491
▁length 491
▁Monument 489
p 478
▁Alfred 478
▁White 478
ry 470
▁Abdul 470
▁team 470
▁Men 467
ing 464
▁10 462
te 459
ston 457
▁V 457
▁Force 454
– 448
▁Andrew 447
▁pilot 440
▁12 438
ra 436
ke 435
▁16 434
▁Pennsylvania 434
▁ground 434
▁School 432
▁Wisconsin 432
▁Mary 429
▁Party 428
▁Town 428
▁by 428
▁Po 427
▁Aleksandr 425
▁Aldri 424
▁Malaysia 423
▁Asian 420
▁Per 419
▁Denmark 418
▁title 418
▁alma 417
▁mater 417
▁Elliot 416
▁See 416
▁manager 416
▁London 410
▁She 405
▁St 404
▁office 402
▁per 402
▁Ohio 401
ce 400
par 399
tion 399
ff 398
34 396
man 396
on 396
ia 394
▁Buzz 394
psis 393
▁a 393
▁Bean 389
▁House 389
ne 388
▁Records 385
IDA 384
ship 382
shire 382
ville 382
dri 381
kita 381
▁Madrid 380
▁Albert 378
ico 375
▁was 375
▁Space 372
▁Regional 371
▁e 371
▁sauce 368
: 366
▁Michigan 365
▁Science 364
bor 363
li 363
▁Philippines 361
▁Rib 361
▁Rock 359
8 358
fant 358
-03- 356
▁area 354
Rhythm 353
▁Sri 353
▁blues 353
ma 352
▁rock 351
0 350
▁Anderson 350
▁Social 350
▁sing 350
ter 349
▁served 346
▁type 345
▁M 344
lin 338
▁N 338
land 336
▁President 336
▁solo 332
ac 329
▁Char 329
le 328
▁Adam 328
▁Adams 326
▁Singapore 326
▁state 326
-07- 324
▁football 322
u 320
▁Business 318
▁Jones 318
▁year 318
po 317
▁Ram 317
▁Ab 315
▁Black 315
▁Abraham 313
▁Civil 312
▁metres 312
b 311
27 310
▁France 310
nell 309
-12- 308
▁Co 308
▁Hall 308
▁Lanka 307
▁Madison 306
-3 305
A 304
▁be 304
▁people 304
▁C 303
▁stylist 300
▁2006 298
31 296
en 296
is 294
▁Greece 293
▁ingredients 293
▁main 293
▁de 292
well 291
milli 288
▁Romania 287
▁14 286
▁successo 284
den 283
ge 283
▁Alabama 283
▁Battle 282
▁La 282
▁Am 281
▁Des 280
▁Mississippi 280
▁Canada 279
▁South 279
ty 278
▁1963 278
▁2014 278
▁K 278
▁above 278
▁eleva 278
▁level 278
▁organisation 278
▁sea 278
▁England 277
▁Turn 277
re 276
lene 274
ben 273
▁5 273
▁James 273
Q 272
▁creator 272
ball 271
foot 271
▁battle 271
Accademia 270
tettu 270
▁Archi 270
more 268
w 268
▁Roma 268
▁Turkey 267
▁operating 267
▁to 267
▁Spanish 266
▁Switzerland 266
de 265
RB 264
el 263
com 261
sert 260
▁Association 260
▁Do 260
▁Great 260
ca 259
▁Atlantic 259
▁Connect 258
United 257
aceae 257
▁Louis 256
cut 254
▁Britain 254
l 253
▁metal 253
▁Athen 252
▁Atlanta 252
ha 251
▁years 251
▁dem 250
▁2009 249
▁J 249
▁Club 248
▁Fo 248
▁8 247
▁variation 247
▁Chi 246
que 245
▁Blues 245
▁sandwich 245
kron 244
▁Public 244
▁bacon 244
sburg 243
15 242
bu 242
▁Pakistan 242
▁Mar 241
▁Tai 241
▁crew 241
ef 240
▁Wer 240
occupation 239
▁as 239
▁Cleveland 238
▁P 238
ham 237
▁period 237
no 236
▁Java 236
▁Ver 236
ers 235
unta 235
▁Arian 235
▁Hip 235
▁hop 235
01 234
▁Disc 234
ics 233
▁Man 233
▁Sport 233
co 232
mont 232
work 232
▁Gar 232
▁Test 232
▁active 232
▁worked 232
▁Alex 231
▁College 231
▁Lo 231
▁Si 230
ny 228
ur 228
▁Abi 228
▁Craig 228
▁Long 228
▁Watson 228
port 227
▁start 227
▁Chicago 226
1 225
Don 225
to 225
▁Ali 225
▁Bar 225
▁SC 225
ti 224
band 223
▁For 223
tives 222
▁1 222
▁Barack 222
▁Obama 222
▁Representa 222
▁league 222
▁Ray 221
▁member 221
mi 220
▁Baku 220
▁Re 220
▁Second 220
▁build 220
▁party 220
▁launch 219
or 218
▁Au 218
▁Azerbaijan 218
▁transport 218
onym 217
▁25 217
▁Oregon 217
▁af 217
habita 216
nts 216
▁Ana 216
▁Christian 216
c 215
music 213
▁Alban 213
▁Angola 213
▁Bangalore 213
▁I 213
▁Mc 213
▁Moscow 213
▁manufacture 212
▁orbit 212
▁site 212
et 211
▁4 211
▁So 211
▁NASA 210
ly 209
▁Mahmud 209
▁Virginia 209
ov 208
ves 208
▁Abel 208
dor 207
lar 207
sion 207
▁Illinois 207
▁apo 207
▁label 207
▁record 207
L 206
R 206
▁Er 206
▁U 206
▁den 206
ner 205
▁architect 205
m 204
▁Ayam 204
▁members 204
▁penye 204
-17 203
nico 203
un 203
▁Austria 203
▁Bio 203
▁Eric 203
▁Serie 203
inig 202
nit 202
quer 202
▁Johnson 202
▁Ash 201
▁Juan 201
-11- 200
4 200
N 200
das 200
▁Apple 200
▁Bana 200
▁Rid 200
▁established 200
▁mean 200
▁AL 199
▁discover 199
cio 198
▁Col 198
▁European 198
▁Pe 198
▁Anti 197
▁Ham 197
▁Ahmet 196
▁State 196
▁Uruguay 196
▁largest 196
▁Netherlands 195
D 194
ar 194
ey 194
▁Adolf 194
▁related 194
▁0 193
▁Sol 193
▁British 192
▁Cal 192
▁Chinese 192
26 190
burn 190
eja 190
nie 190
us 190
▁Band 190
▁Sa 190
▁count 190
▁or 190
▁pais 190
▁Act 189
▁Pop 189
F 188
kil 188
ogram 188
▁Ro 188
▁Suárez 187
ical 186
vara 186
▁1955 186
▁2000 186
▁Rome 186
▁Technolog 186
▁Vis 186
▁background 186
CO 185
baba 185
▁Addis 185
▁Derby 185
▁Os 185
▁RS 185
▁Fight 184
▁under 184
ft 183
▁Ajo 183
18 182
23 182
heim 182
▁Alfa 182
▁Romeo 182
dding 181
fili 181
pil 181
sis 181
vari 181
▁Cri 181
▁Jazz 181
▁pu 181
04 180
pena 180
▁18 180
▁R 180
ion 179
▁Karnataka 179
▁Kovač 179
▁Mid 179
Bar 177
jas 177
▁Cat 177
▁Japan 177
▁author 177
rock 176
▁17 176
▁Antar 176
▁L 176
H 175
ade 175
▁Birmingham 175
▁Conference 175
▁Explo 175
▁Walter 175
day 174
▁103 174
▁Hong 174
▁Kong 174
▁Ajax 173
▁Ground 173
▁Vi 173
▁course 173
▁publish 173
dge 172
▁Authority 172
▁Engineering 172
▁G 172
▁Road 172
▁chicken 171
▁status 171
ling 170
▁Agnes 170
▁North 170
▁Turki 170
▁W 170
▁instrument 170
rd 169
▁Press 169
▁Ben 168
▁Nation 168
▁cuisine 168
▁total 168
base 167
il 167
▁alternative 167
▁6 166
▁Be 166
▁Parker 166
▁San 165
▁Wild 165
▁has 165
▁owner 165
▁Gu 164
▁AC 163
▁Houston 163
▁Inc 163
▁while 163
3 162
ve 162
▁National 162
▁Senat 161
▁academic 161
▁operator 161
MC 160
ley 160
nings 160
sed 160
▁Big 160
▁Jen 160
barth 159
blanc 159
z 159
▁Germany 159
▁Har 159
▁SV 159
28 158
so 158
▁2015 158
▁Ber 158
▁Dallas 158
polis 157
▁100 157
▁Medal 157
cura 156
▁Charlie 156
▁Holl 156
▁Mathe 156
dis 155
ji 155
pool 155
▁Le 155
00000 154
mar 153
silo 153
▁250 153
▁As 153
▁Green 153
kes 152
red 152
▁164 152
▁T 152
ian 151
▁1000 151
▁Alaska 151
▁Launch 151
▁commande 151
-09- 150
iva 150
▁& 150
▁2005 150
▁French 150
▁deriva 150
▁former 150
mond 149
se 149
▁Iraq 149
▁Mata 149
▁floor 149
▁its 149
-06- 148
est 148
▁Elizabeth 148
▁Member 148
journal 147
▁Ireland 147
▁League 147
ga 146
ow 146
▁Bur 146
▁Italian 146
▁te 146
bach 145
fon 145
lion 145
werp 145
▁2 145
▁Angeles 145
▁Ant 145
▁Dal 145
▁Funk 145
▁Gor 145
▁Los 145
▁Rebel 145
-01- 144
ster 144
▁Lake 144
▁Sarawak 144
▁Way 144
link 143
ssa 143
▁AW 143
▁Alla 143
▁Iqbal 143
▁Service 143
36 142
X 142
town 142
▁Amar 142
▁Amsterdam 142
am 141
▁Alder 141
▁Army 141
▁Ay 141
200 140
st 140
x 140
▁Asad 140
▁Hard 140
▁Memorial 140
10 139
aire 139
id 139
lu 139
nikov 139
ther 139
▁Alberto 139
▁Pru 139
▁Summit 139
▁Teis 139
▁Zealand 139
5.0 138
99 138
bat 138
▁E 138
▁Felipe 138
▁Milan 138
▁Row 138
▁district 138
Atlant 137
ney 137
cea 136
▁Art 136
▁Department 136
▁Guia 136
▁Kha 136
▁Street 136
▁West 136
▁Wheel 136
▁media 136
vah 135
▁Bha 135
▁Sabi 135
▁Ve 135
000 134
ber 134
ón 134
▁Agra 134
▁Atlas 134
▁Dance 134
▁Pietro 134
ans 133
pé 133
tella 133
▁East 133
▁complet 133
▁nasa 133
▁selected 133
les 132
▁1932 132
▁German 132
▁He 132
▁Ja 132
▁Julia 132
▁Lee 132
▁Mark 132
▁Marriott 132
▁Morgan 132
▁fusion 132
bly 131
mir 131
ssem 131
ture 131
İ 131
▁Allen 131
▁Atatürk 131
▁World 131
▁military 131
4.0 130
T 130
bbi 130
state 130
▁Audi 130
▁Council 130
▁Cruise 130
▁Democratic 130
▁Dr 130
▁Pala 130
▁Parliament 130
▁Print 130
der 129
fa 129
rest 129
ria 129
▁Bella 129
▁Car 129
▁Copenhagen 129
▁Honda 129
▁Indian 129
▁Region 129
▁Shi 129
at 128
ña 128
▁Africa 128
▁kwa 128
▁oil 128
▁season 128
kov 127
▁Verona 127
▁van 127
3.0 126
gno 126
ice 126
iyat 126
rait 126
▁Ale 126
▁Glen 126
▁Mono 126
Za 125
lands 125
▁Frederic 125
▁Tennessee 125
▁Williams 125
▁ship 125
bal 124
cot 124
gun 124
inger 124
me 124
rosa 124
tar 124
▁Burn 124
▁Main 124
▁TL 124
▁Turk 124
▁Was 124
▁Zi 124
cy 123
do 123
j 123
rò 123
sam 123
▁Caballero 123
▁Sand 123
▁negre 123
tyr 122
▁13 122
▁Colombia 122
▁Grey 122
▁Ne 122
raz 121
▁Ada 121
▁Alca 121
▁Argentina 121
▁Delta 121
▁Sparta 121
▁Vers 121
ELA 120
K 120
min 120
▁Ice 120
▁Indi 120
▁with 120
FC 119
cho 119
dan 119
▁Bat 119
▁award 119
▁pe 119
2 118
ira 118
ment 118
para 118
va 118
▁1986 118
▁600 118
▁Arap 118
▁Euro 118
▁air 118
▁currency 118
97 117
hed 117
lor 117
pop 117
za 117
▁1. 117
▁1998 117
▁Lu 117
▁Pradesh 117
▁Province 117
▁Uttar 117
▁body 117
▁population 117
03 116
06 116
LT 116
U 116
gre 116
name 116
tting 116
▁0.0 116
▁107 116
▁Costa 116
▁Gro 116
▁Mad 116
▁Orange 116
▁president 116
-1 115
89 115
f 115
▁Afonso 115
▁Cornel 115
▁Miller 115
▁Pena 115
11 114
cover 114
lic 114
men 114
tato 114
▁Andra 114
▁Sweet 114
▁po 114
Ros 113
como 113
rian 113
▁Assembl 113
▁Evil 113
▁Kan 113
▁Libra 113
▁Luna 113
▁Tar 113
▁preced 113
-04- 112
ação 112
go 112
quen 112
yal 112
▁1996 112
▁Day 112
▁Jr 112
▁Museum 112
▁Stuart 112
▁Vol 112
▁Wolf 112
▁vegetables 112
ana 111
tel 111
▁Egg 111
▁Get 111
▁Här 111
▁Jens 111
▁Nav 111
▁Pre 111
▁flight 111
▁spoke 111
21 110
7 110
donis 110
ist 110
nut 110
▁1923 110
▁Company 110
▁Rad 110
▁Vincent 110
brev 109
sser 109
vers 109
vy 109
▁Chu 109
▁Dag 109
▁Potter 109
▁Tran 109
▁ab 109
▁code 109
Ne 108
hang 108
ting 108
vis 108
zny 108
▁Abubakar 108
▁Belgium 108
▁Robert 108
▁style 108
▁Avenue 107
▁Bay 107
▁Daw 107
▁Finland 107
▁Fried 107
300 106
St 106
ad 106
hra 106
ibu 106
rena 106
▁Ala 106
▁Alternative 106
▁Bu 106
▁Contr 106
▁Frank 106
▁High 106
▁Mars 106
▁Michel 106
▁VI 106
▁full 106
▁property 106
▁wa 106
ction 105
itra 105
tingu 105
trici 105
▁Ama 105
▁Dis 105
▁Hotel 105
▁Sky 105
▁Twilight 105
▁spo 105
12 104
20 104
24 104
900 104
illo 104
rik 104
strup 104
▁- 104
▁101 104
▁23 104
▁BBC 104
▁Brazil 104
▁Ca 104
▁Sara 104
▁Tir 104
evo 103
hor 103
ig 103
▁Adi 103
▁Central 103
▁Tama 103
▁power 103
▁students 103
13 102
14 102
bour 102
kin 102
▁1927 102
▁Community 102
▁Marc 102
▁Plac 102
▁Pro 102
▁Wizard 102
bury 101
ets 101
▁Gaz 101
▁Grant 101
▁foundation 101
istan 100
ont 100
▁Bi 100
▁Da 100
▁Peter 100
New 99
mbra 99
video 99
ware 99
▁Ard 99
▁Bath 99
▁Dela 99
▁GT 99
▁Monte 99
▁Para 99
▁Republic 99
▁Roman 99
-05- 98
22 98
30 98
break 98
hatta 98
nac 98
rett 98
tone 98
▁1928 98
▁1962 98
▁Aleks 98
▁Centre 98
▁Hum 98
▁Sing 98
▁X 98
▁building 98
660 97
▁Rotterdam 97
▁Tex 97
▁Titan 97
▁tart 97
-02- 96
ek 96
wide 96
▁110 96
▁AIDS 96
▁Den 96
▁Moore 96
▁Scal 96
davad 95
get 95
▁Ak 95
▁Bremen 95
▁Erasmus 95
▁Ethiopia 95
▁Kerala 95
▁Polis 95
▁Ya 95
▁ni 95
600 94
7.0 94
ger 94
▁1918 94
▁Bob 94
▁Camilla 94
▁Decembrie 94
▁Dublin 94
▁Rut 94
▁Stö 94
▁for 94
▁rice 94
BS 93
och 93
tica 93
▁Alba 93
▁At 93
▁Ful 93
▁George 93
▁Polo 93
▁Qua 93
▁Tomat 93
09 92
ave 92
fried 92
lde 92
mouth 92
um 92
usage 92
▁1989 92
▁1999 92
▁Country 92
▁Fy 92
▁Sar 92
▁car 92
ción 91
ble 90
g 90
orno 90
ough 90
vel 90
▁1930 90
▁52 90
▁Bor 90
▁Con 90
▁Ef 90
▁Her 90
▁Liv 90
▁Mala 90
▁Stadium 90
▁Union 90
▁m 90
▁surface 90
264 89
cone 89
cu 89
mac 89
▁Allan 89
▁Antoni 89
▁Claudio 89
▁Falcon 89
▁Syn 89
▁size 89
-10- 88
46 88
WC 88
bn 88
ina 88
lusi 88
▁' 88
▁1957 88
▁2013 88
▁560 88
▁Anda 88
▁Battlefield 88
▁Don 88
▁Fe 88
▁Helena 88
▁Hunt 88
▁SB 88
▁order 88
▁staff 88
bo 87
craft 87
heed 87
▁Add 87
▁Fre 87
▁Lock 87
▁Samar 87
▁escape 87
▁veloci 87
Am 86
ales 86
gie 86
mann 86
salam 86
tress 86
we 86
▁Aires 86
▁Bre 86
▁Buenos 86
▁Francisco 86
▁Hospital 86
▁Hy 86
▁Johann 86
▁Old 86
▁Rodríguez 86
▁Schneider 86
▁Square 86
quart 85
tra 85
▁Base 85
▁Daniel 85
▁Fall 85
▁Glas 85
▁Hernández 85
▁Suma 85
▁head 85
16 84
IP 84
ir 84
lini 84
nica 84
ologica 84
vin 84
▁20 84
▁Grass 84
▁Gren 84
▁Marco 84
▁Massachusetts 84
▁Philippine 84
▁Phillip 84
▁Se 84
▁Sever 84
▁System 84
▁class 84
ast 83
club 83
fec 83
gor 83
use 83
érie 83
▁Bata 83
▁Brasileiro 83
▁Brom 83
▁Campeonato 83
▁Carlos 83
▁Lahore 83
▁Lyon 83
090 82
V 82
film 82
gon 82
halli 82
ington 82
krishna 82
matic 82
palli 82
pán 82
rg 82
ta 82
tres 82
v 82
vana 82
▁Alpha 82
▁Cape 82
▁Education 82
▁Hero 82
▁Meta 82
▁Ter 82
▁al 82
▁– 82
E 81
onia 81
▁Catal 81
▁Pad 81
▁Paraguay 81
▁Punjab 81
▁los 81
-08- 80
05 80
788 80
▁(15 80
▁1969 80
▁1993 80
▁Airlines 80
▁Arena 80
▁Chance 80
▁Fig 80
▁Folk 80
▁Football 80
▁Gruppo 80
▁Mas 80
▁Minister 80
▁Station 80
▁UT 80
777 79
FD 79
ern 79
espace 79
ine 79
▁(4 79
▁Ce 79
▁Moy 79
▁Richard 79
000000 78
LV 78
UK 78
kel 78
os 78
quia 78
rage 78
si 78
uren 78
▁1950 78
▁200 78
▁27 78
▁Ace 78
▁Avia 78
▁Brussel 78
▁Cle 78
▁Di 78
▁District 78
▁Guru 78
▁Gö 78
▁Jaya 78
▁Joe 78
▁Li 78
▁No 78
▁from 78
▁mass 78
ZAL 77
cia 77
liga 77
nou 77
ring 77
tín 77
xe 77
▁Agus 77
▁May 77
▁Neptun 77
▁bran 77
94 76
da 76
speed 76
▁15 76
▁300 76
▁Fort 76
▁Gran 76
▁Lyd 76
▁Salle 76
▁Ste 76
▁Wil 76
▁Work 76
▁category 76
▁champion 76
▁found 76
ck 75
ette 75
ique 75
nais 75
▁Gujarat 75
▁Olymp 75
▁Pri 75
▁followed 75
80 74
licita 74
nese 74
size 74
ul 74
▁109 74
▁Abo 74
▁Boo 74
▁David 74
▁Dia 74
▁Drum 74
▁Federal 74
▁Fen 74
▁Flower 74
▁Governo 74
▁all 74
▁bas 74
▁cream 74
▁plant 74
63) 73
ata 73
enberg 73
hand 73
tor 73
▁All 73
▁Custom 73
▁Davis 73
▁Dun 73
▁Premier 73
▁RO 73
▁Vand 73
▁Wi 73
▁discipline 73
29 72
5 72
8.8 72
ach 72
gaard 72
may 72
oğlu 72
tenant 72
vut 72
▁2004 72
▁8. 72
▁Guitar 72
▁Helsinki 72
▁Lincoln 72
▁Math 72
▁Tom 72
▁egg 72
▁flo 72
CM 71
ENA 71
IRE 71
stock 71
▁Administrativ 71
▁Dim 71
▁Ko 71
▁Mike 71
▁Quart 71
▁Shu 71
▁Stra 71
▁Trans 71
▁designer 71
), 70
af 70
ary 70
hol 70
mati 70
per 70
wys 70
▁Arabic 70
▁Boston 70
▁Case 70
▁Cu 70
▁Douglas 70
▁Mendoza 70
▁Pan 70
▁Schi 70
▁Sergio 70
▁transmission 70
▁youth 70
sena 69
sha 69
▁Der 69
▁Gau 69
▁Hamburg 69
▁Reyes 69
▁Sebastián 69
▁north 69
▁residen 69
-0 68
63 68
91) 68
burg 68
dels 68
hel 68
ho 68
kke 68
oh 68
ology 68
▁(6 68
▁18. 68
▁1966 68
▁1995 68
▁39 68
▁Boris 68
▁Bumiputera 68
▁Ga 68
▁Jonathan 68
▁Jorge 68
▁KW 68
▁Lars 68
▁Lø 68
▁Meyer 68
▁Ot 68
▁Parti 68
▁Rasmussen 68
▁Secretary 68
▁Van 68
▁white 68
Ta 67
dir 67
ello 67
max 67
onda 67
rama 67
rant 67
▁1910 67
▁Ann 67
▁Speed 67
▁Tor 67
▁co 67
▁final 67
▁speed 67
▁star 67
( 66
-10 66
1.0 66
ate 66
colo 66
los 66
minut 66
ni 66
ph 66
ters 66
▁1933 66
▁1994 66
▁Manhattan 66
▁Mayor 66
▁Paul 66
▁Port 66
▁Prime 66
▁Spania 66
▁Í 66
-16 65
be 65
ica 65
mai 65
ram 65
▁Bert 65
▁Fle 65
▁Go 65
▁Ke 65
▁pages 65
130 64
3.9 64
48 64
737 64
aar 64
ight 64
jan 64
km 64
rol 64
roll 64
ze 64
zzi 64
▁162 64
▁1983 64
▁1987 64
▁26 64
▁5. 64
▁AF 64
▁Advance 64
▁Alexandr 64
▁Cum 64
▁Harri 64
▁III 64
▁José 64
▁Pin 64
▁Six 64
▁Ska 64
▁São 64
▁To 64
▁but 64
▁dos 64
jo 63
sia 63
▁Acc 63
▁Contra 63
▁Friedrich 63
▁Mak 63
▁Roland 63
▁Vor 63
▁retire 63
▁temperature 63
Associazione 62
dab 62
gue 62
ids 62
lc 62
om 62
pin 62
rella 62
sa 62
▁Abra 62
▁Church 62
▁Complex 62
▁Fernando 62
▁Florida 62
▁Ha 62
▁Island 62
▁Lip 62
▁Matt 62
▁Technic 62
▁end 62
▁oc 62
fen 61
mish 61
pe 61
ult 61
▁Arra 61
▁Curitiba 61
▁HIV 61
▁Sam 61
▁We 61
19 60
25 60
47 60
; 60
EK 60
Spa 60
ard 60
can 60
cup 60
four 60
ings 60
ja 60
mez 60
saka 60
satu 60
tik 60
zane 60
▁1974 60
▁44 60
▁700 60
▁AZ 60
▁Academy 60
▁An 60
▁Bad 60
▁Bill 60
▁Coco 60
▁Fruit 60
▁Gang 60
▁Gold 60
▁Hopkins 60
▁Journal 60
▁Mah 60
▁Mumbai 60
▁Sid 60
▁Super 60
▁le 60
▁material 60
▁me 60
▁por 60
▁post 60
urban 59
▁Alexandra 59
▁Aur 59
▁Blue 59
▁Drago 59
▁King 59
▁Lemon 59
▁Massimo 59
▁Sub 59
▁division 59
▁se 59
-20 58
2.0 58
255 58
32 58
Commerce 58
cc 58
dro 58
kur 58
lea 58
nant 58
rys 58
▁(19 58
▁60 58
▁88 58
▁Alexander 58
▁Bot 58
▁Dy 58
▁Il 58
▁Isi 58
▁Jackson 58
▁Jan 58
▁Kalb 58
▁Mario 58
▁Ryan 58
▁Sea 58
▁Ten 58
▁Tha 58
▁historic 58
▁l 58
▁places 58
▁register 58
So 57
identifi 57
viet 57
▁Città 57
▁Iulia 57
▁Manchester 57
▁Palermo 57
▁Seminar 57
▁Sports 57
▁Sy 57
▁campus 57
▁debut 57
▁mai 57
0000 56
33 56
75 56
9 56
IT 56
back 56
cado 56
company 56
io 56
iye 56
kat 56
kryt 56
ll 56
singh 56
ver 56
város 56
▁34 56
▁47 56
▁August 56
▁Avo 56
▁Cana 56
▁Cor 56
▁Dead 56
▁Ferenc 56
▁Jack 56
▁Kuch 56
▁Kut 56
▁Mag 56
▁Manuel 56
▁Mir 56
▁Ran 56
▁Red 56
▁Stad 56
▁TC 56
▁Vall 56
▁Wick 56
▁minister 56
▁prime 56
▁significant 56
hem 55
komst 55
park 55
trin 55
▁Klaus 55
▁Legend 55
▁Petro 55
▁Poland 55
▁Rahman 55
▁Scott 55
▁Systems 55
▁Tennis 55
▁Toe 55
▁Viking 55
▁ant 55
380 54
56 54
70 54
dam 54
ese 54
im 54
lo 54
ola 54
politic 54
puta 54
suf 54
wood 54
▁37 54
▁Ankara 54
▁Charles 54
▁Death 54
▁El 54
▁Hal 54
▁Jefferson 54
▁Ju 54
▁Kalla 54
▁Modi 54
▁Narendra 54
▁Nigeria 54
▁Park 54
▁Silva 54
▁Stellen 54
▁Susan 54
▁also 54
▁company 54
▁milk 54
▁nood 54
cin 53
iere 53
ins 53
jah 53
▁Ad 53
▁Croc 53
▁General 53
▁Motor 53
▁Post 53
▁conflict 53
▁on 53
165 52
2.2 52
35 52
68 52
adi 52
ak 52
architecture 52
ating 52
auto 52
cher 52
jl 52
kar 52
med 52
mobile 52
odo 52
ović 52
ša 52
▁03 52
▁9 52
▁Area 52
▁Belg 52
▁Buch 52
▁Cro 52
▁Dol 52
▁Fiat 52
▁Guard 52
▁Hil 52
▁Joko 52
▁Laura 52
▁Miha 52
▁Paris 52
▁Pia 52
▁Soviet 52
▁Ty 52
▁Wid 52
▁Za 52
▁cake 52
▁g 52
▁parent 52
TU 51
ero 51
▁China 51
▁Columbus 51
▁Dynamics 51
▁Electric 51
▁Grove 51
▁Pacific 51
▁height 51
439 50
45 50
92 50
Assad 50
bi 50
conf 50
eau 50
ection 50
ene 50
ery 50
esh 50
him 50
mah 50
ttoman 50
ward 50
é 50
▁1907 50
▁2011 50
▁29 50
▁30 50
▁61 50
▁Ahmad 50
▁Bron 50
▁Castle 50
▁Chief 50
▁Conserva 50
▁Hali 50
▁Health 50
▁Hor 50
▁Iohannis 50
▁Kad 50
▁Leipzig 50
▁MBA 50
▁Mer 50
▁Ra 50
▁Staten 50
▁Tan 50
▁Tony 50
▁backup 50
▁black 50
▁gar 50
▁killed 50
▁soldi 50
asan 49
metal 49
▁con 49
17 48
290 48
au 48
bank 48
bhu 48
ku 48
kumar 48
nes 48
ol 48
ure 48
ér 48
▁1981 48
▁2001 48
▁7 48
▁Bütün 48
▁Carolina 48
▁Fa 48
▁Four 48
▁Franklin 48
▁Gün 48
▁Hüseyin 48
▁Lar 48
▁Me 48
▁Od 48
▁Pra 48
▁Script 48
▁Secret 48
▁Thomas 48
▁Tyr 48
▁cook 48
▁guitar 48
▁key 48
▁olive 48
▁person 48
▁south 48
FK 47
▁Ahmedabad 47
▁govern 47
& 46
1.6 46
371 46
57 46
6 46
60 46
84 46
M 46
ced 46
endorf 46
ettes 46
gression 46
ik 46
isch 46
lay 46
list 46
mbo 46
pura 46
sula 46
tol 46
up 46
val 46
visión 46
zhi 46
▁49 46
▁5.3 46
▁Bol 46
▁Cambridge 46
▁Canon 46
▁Capitol 46
▁Cyr 46
▁Dori 46
▁Greek 46
▁Gul 46
▁Historic 46
▁Kot 46
▁Magda 46
▁Montreal 46
▁Olympic 46
▁Pen 46
▁Pol 46
▁Real 46
▁Roberts 46
▁i 46
▁punk 46
action 45
▁320 45
▁9000 45
▁Español 45
▁Hamilton 45
▁Information 45
▁Rand 45
▁Saab 45
▁Stars 45
-9 44
40 44
43 44
kopi 44
ple 44
pou 44
ucci 44
▁120 44
▁Argentin 44
▁Ea 44
▁H 44
▁Im 44
▁Jon 44
▁Korean 44
▁Ku 44
▁Lotus 44
▁Ni 44
▁Office 44
▁Pav 44
▁Pur 44
▁Universiti 44
▁Valencia 44
▁diameter 44
▁family 44
Gre 43
ece 43
wan 43
▁current 43
3.8 42
542 42
7000 42
90 42
cano 42
cou 42
fare 42
ies 42
ita 42
master 42
same 42
tsi 42
unk 42
▁08 42
▁1956 42
▁1976 42
▁210 42
▁45 42
▁Boeing 42
▁Bund 42
▁Filipino 42
▁Globe 42
▁Hai 42
▁Istanbul 42
▁Juventus 42
▁Mac 42
▁Maha 42
▁Niko 42
▁Nu 42
▁Sum 42
▁Tab 42
▁Taylor 42
▁Vou 42
▁Wel 42
▁Yu 42
▁first 42
▁granit 42
▁mar 42
▁municipal 42
▁s 42
anda 41
che 41
kub 41
▁Infra 41
▁Mol 41
▁Pier 41
▁Plan 41
▁broadcast 41
▁da 41
-4 40
/1 40
349 40
388 40
76 40
88 40
HAM 40
O 40
ama 40
berto 40
bet 40
die 40
he 40
heel 40
hte 40
lly 40
ns 40
oi 40
phal 40
pras 40
stro 40
sun 40
teurs 40
▁1862 40
▁1913 40
▁2008 40
▁350 40
▁4. 40
▁Aleksander 40
▁Alexandre 40
▁Artur 40
▁Berg 40
▁Block 40
▁Du 40
▁En 40
▁Gad 40
▁Galicia 40
▁Glo 40
▁Graz 40
▁Justicia 40
▁Monroe 40
▁Patrick 40
▁Pea 40
▁Rais 40
▁Rasi 40
▁Reddy 40
▁Rose 40
▁Stern 40
▁Steve 40
▁Sylv 40
▁Wien 40
▁Y 40
▁butter 40
▁cheese 40
▁dedicated 40
▁doctor 40
▁jam 40
▁non 40
▁rupe 40
2) 39
ARA 39
inti 39
sel 39
tem 39
▁Cele 39
▁coach 39
▁construction 39
▁der 39
▁official 39
558 38
749 38
75) 38
Royce 38
don 38
gh 38
her 38
it 38
lein 38
taki 38
tory 38
ural 38
van 38
watch 38
ye 38
yle 38
zh 38
▁125 38
▁185 38
▁1959 38
▁3. 38
▁380 38
▁4- 38
▁Ap 38
▁Bundesliga 38
▁Cookie 38
▁DA 38
▁Design 38
▁Esse 38
▁FK 38
▁Gram 38
▁Hein 38
▁Imagine 38
▁June 38
▁Kent 38
▁Kids 38
▁Konstantin 38
▁Legisla 38
▁Mit 38
▁Ober 38
▁Olive 38
▁Osim 38
▁Pais 38
▁Qatar 38
▁Republican 38
▁Sale 38
▁Salvador 38
▁Star 38
▁Steven 38
▁Tur 38
▁Universitas 38
▁Wilson 38
▁bar 38
▁cold 38
▁draft 38
▁lira 38
▁muffin 38
▁piece 38
▁ras 38
▁sang 38
▁sar 38
▁so 38
▁vice 38
aty 37
cess 37
matica 37
viv 37
▁Academic 37
▁Buffalo 37
▁Dave 37
▁Democracy 37
▁Hungari 37
▁Isabel 37
▁Karp 37
▁NR 37
▁chair 37
▁pred 37
▁submarin 37
100 36
adh 36
angan 36
bic 36
dum 36
ejo 36
ez 36
filia 36
gib 36
gled 36
itis 36
ito 36
lib 36
low 36
machine 36
mp 36
pan 36
qad 36
reo 36
rizo 36
shed 36
tech 36
then 36
tions 36
yard 36
▁1500 36
▁159 36
▁168 36
▁1905 36
▁1931 36
▁Arc 36
▁Aw 36
▁Banner 36
▁Campbell 36
▁Cho 36
▁Comme 36
▁Cul 36
▁Dan 36
▁Entertainment 36
▁Garage 36
▁Lan 36
▁Pale 36
▁Peri 36
▁Queen 36
▁Sergey 36
▁red 36
▁sam 36
▁sma 36
all 35
sco 35
▁compete 35
▁top 35
546 34
997 34
cao 34
dol 34
imp 34
ingu 34
itan 34
oca 34
phos 34
sta 34
than 34
tu 34
wer 34
úl 34
▁1-4 34
▁1.9 34
▁108 34
▁179 34
▁1979 34
▁1982 34
▁1988 34
▁360 34
▁78 34
▁97 34
▁978- 34
▁99 34
▁Ball 34
▁Bloom 34
▁Brand 34
▁Congress 34
▁Government 34
▁Heart 34
▁Kansas 34
▁Live 34
▁Palo 34
▁Paper 34
▁Psy 34
▁Pu 34
▁Rakh 34
▁Rama 34
▁Rashid 34
▁Send 34
▁Standard 34
▁Terra 34
▁c 34
▁drive 34
▁inaugura 34
▁metropol 34
▁organ 34
▁pro 34
▁shr 34
dio 33
ent 33
hallin 33
ischen 33
letti 33
lung 33
mat 33
▁Cast 33
▁Gra 33
▁Knight 33
▁Köln 33
▁Lucian 33
▁Pal 33
▁Spal 33
▁Universität 33
▁aus 33
▁editor 33
▁space 33
▁time 33
055 32
2.8 32
288 32
332 32
339 32
55 32
74 32
G 32
ada 32
ant 32
bago 32
ches 32
cking 32
dar 32
electric 32
gradu 32
illa 32
ish 32
leri 32
mak 32
nı 32
oga 32
ot 32
peal 32
try 32
tı 32
ung 32
ury 32
vision 32
yah 32
▁/ 32
▁000 32
▁1971 32
▁1980 32
▁36 32
▁Award 32
▁Ban 32
▁Cameron 32
▁Center 32
▁Christmas 32
▁Creek 32
▁Diesel 32
▁Eagle 32
▁Full 32
▁González 32
▁Grand 32
▁Igor 32
▁Jacob 32
▁Jalan 32
▁Lega 32
▁Michael 32
▁Min 32
▁Pag 32
▁Ple 32
▁Ponteareas 32
▁Primer 32
▁Record 32
▁Roger 32
▁Ros 32
▁Ruth 32
▁Stanley 32
▁Tudor 32
▁Türk 32
▁Vegeta 32
▁Word 32
▁average 32
▁can 32
▁lux 32
▁planta 32
▁west 32
▁Şehit 32
Black 31
ence 31
▁Bald 31
▁Brook 31
▁Chicken 31
▁Def 31
▁PS 31
▁Sie 31
▁Tim 31
▁comparable 31
▁neighbor 31
1-8 30
109 30
1300 30
3.3 30
448 30
459 30
479 30
500 30
65 30
78 30
W 30
ark 30
ba 30
box 30
code 30
cro 30
ele 30
fara 30
field 30
fres 30
gle 30
haft 30
ie 30
lal 30
lent 30
lut 30
ncia 30
ná 30
pa 30
pel 30
rata 30
res 30
rick 30
rie 30
ré 30
selskab 30
syn 30
tie 30
ular 30
vaz 30
wald 30
west 30
zi 30
ō 30
▁09 30
▁1.5 30
▁1904 30
▁1958 30
▁280 30
▁440 30
▁77 30
▁Ah 30
▁Anglia 30
▁Brown 30
▁Cara 30
▁Cham 30
▁Circuit 30
▁December 30
▁Edwin 30
▁Enrique 30
▁Este 30
▁Irish 30
▁Isaac 30
▁Kaiser 30
▁Koch 30
▁Lufthavn 30
▁Milk 30
▁Nie 30
▁Oliver 30
▁Olympia 30
▁Pain 30
▁Roja 30
▁Royal 30
▁Short 30
▁Spon 30
▁Stati 30
▁Taba 30
▁Thema 30
▁VIA 30
▁Vietnam 30
▁Vázquez 30
▁Wort 30
▁Wys 30
▁Zuma 30
▁added 30
▁back 30
▁bak 30
▁centre 30
▁change 30
▁fully 30
▁gear 30
▁joint 30
▁lever 30
▁open 30
▁perform 30
▁personnel 30
▁plate 30
▁separate 30
▁single 30
▁spiral 30
▁tub 30
▁Æ 30
CF 29
segu 29
▁Dil 29
▁Fiorentina 29
▁Ob 29
▁Olu 29
▁Plaza 29
▁Poly 29
▁Russia 29
▁higher 29
▁water 29
-6 28
008 28
368 28
498 28
722 28
770 28
95 28
Ar 28
ban 28
bar 28
beat 28
bou 28
centimetr 28
cino 28
genti 28
ini 28
lez 28
lije 28
mbe 28
net 28
nish 28
ors 28
phi 28
press 28
sing 28
stic 28
the 28
uso 28
uß 28
writer 28
▁07 28
▁10000 28
▁16. 28
▁1857 28
▁216 28
▁40 28
▁400 28
▁91 28
▁Admin 28
▁Afro 28
▁Arab 28
▁Arabia 28
▁Arthur 28
▁Asa 28
▁Auto 28
▁Batu 28
▁Beach 28
▁Berlin 28
▁Billy 28
▁Cando 28
▁Cross 28
▁François 28
▁Harvard 28
▁Ho 28
▁Holland 28
▁Jakarta 28
▁Kor 28
▁Map 28
▁Marg 28
▁Monde 28
▁Nijmegen 28
▁Opel 28
▁Or 28
▁Q 28
▁Rover 28
▁Russian 28
▁Sci 28
▁Styr 28
▁Thunder 28
▁Ti 28
▁Vila 28
▁Visa 28
▁banana 28
▁com 28
▁fill 28
▁hot 28
▁min 28
▁position 28
▁rap 28
▁reference 28
▁student 28
dala 27
jara 27
skat 27
ving 27
▁Bru 27
▁Emil 27
▁Gua 27
▁feet 27
▁monarch 27
▁wheel 27
-19 26
-21 26
02 26
1.8 26
164 26
180 26
260 26
370 26
700 26
93 26
AIDS 26
celli 26
cilla 26
dded 26
enza 26
imet 26
jang 26
leg 26
lema 26
llow 26
mor 26
pata 26
pped 26
riam 26
ron 26
sey 26
side 26
sky 26
tha 26
yan 26
yet 26
▁21. 26
▁211 26
▁50 26
▁8000 26
▁94 26
▁Agency 26
▁Arts 26
▁Can 26
▁Cand 26
▁Cent 26
▁Chennai 26
▁Cra 26
▁Cream 26
▁Desa 26
▁Executive 26
▁Freedom 26
▁Futebol 26
▁Giuseppe 26
▁Gus 26
▁Inf 26
▁Lazio 26
▁Mai 26
▁Nova 26
▁Panama 26
▁Parc 26
▁Paulo 26
▁People 26
▁Revi 26
▁River 26
▁Roy 26
▁SK 26
▁Sh 26
▁Sou 26
▁Stan 26
▁Stanford 26
▁Te 26
▁Telangana 26
▁Terri 26
▁Wall 26
▁are 26
▁attack 26
▁avocado 26
▁chi 26
▁cho 26
▁hoga 26
▁invasi 26
▁layout 26
▁lemon 26
▁million 26
▁more 26
▁pepper 26
▁roll 26
▁service 26
▁specific 26
ord 25
tation 25
▁Hay 25
▁Karl 25
▁ro 25
-26 24
1-4 24
149 24
155 24
158 24
1800 24
2. 24
3-7 24
363 24
395 24
51 24
634 24
944 24
970 24
AA 24
FB 24
RCA 24
TK 24
adas 24
age 24
bit 24
fighter 24
gin 24
hai 24
home 24
idad 24
iller 24
ladi 24
lesen 24
llo 24
lv 24
ous 24
pper 24
put 24
rich 24
ro 24
sk 24
tiba 24
▁05 24
▁151 24
▁1901 24
▁1936 24
▁2.0 24
▁2003 24
▁7.5 24
▁70 24
▁Amharic 24
▁Augustus 24
▁Australia 24
▁Bani 24
▁Berna 24
▁Berry 24
▁Bod 24
▁Brother 24
▁Dinamo 24
▁Diya 24
▁Díaz 24
▁Emanuel 24
▁Foot 24
▁Francis 24
▁Ir 24
▁Is 24
▁Kenn 24
▁Martínez 24
▁Matteo 24
▁Moro 24
▁Mula 24
▁Psalm 24
▁Rab 24
▁Rah 24
▁Ren 24
▁Samu 24
▁Shan 24
▁Shir 24
▁Swiss 24
▁Tes 24
▁Tin 24
▁Trin 24
▁Tuan 24
▁View 24
▁Voice 24
▁Walt 24
▁automatic 24
▁blanco 24
▁director 24
▁nick 24
ara 23
eme 23
▁Az 23
▁Baltic 23
▁Bo 23
▁Building 23
▁Dane 23
▁Está 23
▁Fon 23
▁Garden 23
▁Municipal 23
▁Steel 23
▁Whit 23
▁model 23
▁near 23
▁ser 23
! 22
-15 22
-7 22
0.9 22
02. 22
113 22
159 22
330 22
334 22
39 22
394 22
44 22
52 22
53 22
553 22
58 22
6.7 22
7.1 22
767 22
Az 22
Claude 22
Lokomotiv 22
ancia 22
ants 22
ap 22
assa 22
bai 22
bg 22
bh 22
bridge 22
cchi 22
chel 22
erland 22
ffer 22
ford 22
gar 22
gran 22
laigh 22
long 22
market 22
mo 22
nge 22
nize 22
od 22
oria 22
pod 22
poli 22
rou 22
sberg 22
stö 22
tolo 22
tă 22
uring 22
witz 22
ște 22
▁1.2 22
▁153 22
▁1941 22
▁51 22
▁512 22
▁520 22
▁87 22
▁90 22
▁Alfonso 22
▁Amb 22
▁Australian 22
▁Babel 22
▁Brooklyn 22
▁Die 22
▁End 22
▁Evangel 22
▁FA 22
▁Federation 22
▁Flo 22
▁Gregor 22
▁Hun 22
▁KV 22
▁Klu 22
▁Kou 22
▁Kras 22
▁Kristin 22
▁Land 22
▁Log 22
▁Luxury 22
▁Ma 22
▁Management 22
▁Meri 22
▁Mexican 22
▁Niin 22
▁Ontario 22
▁Operation 22
▁Order 22
▁Physic 22
▁Por 22
▁Qi 22
▁Saul 22
▁Seattle 22
▁Sedan 22
▁Tham 22
▁Transport 22
▁Tu 22
▁Two 22
▁Uni 22
▁Wol 22
▁XIII 22
▁Xiao 22
▁countries 22
▁coup 22
▁door 22
▁gu 22
▁legisla 22
▁manual 22
▁politici 22
▁popular 22
▁religion 22
▁român 22
▁sports 22
▁ten 22
▁vehicle 22
air 21
gen 21
held 21
rón 21
▁Aff 21
▁Development 21
▁Dick 21
▁Galileo 21
▁Petersburg 21
▁influence 21
▁sub 21
136 20
1960 20
206 20
220 20
646 20
652 20
657 20
863 20
870 20
986 20
GR 20
Man 20
OK 20
Star 20
bb 20
ched 20
cos 20
ctic 20
elia 20
ensis 20
etti 20
fish 20
gi 20
gram 20
hrá 20
hu 20
ians 20
ith 20
keh 20
la 20
ndo 20
nelle 20
obi 20
ota 20
ots 20
pane 20
pul 20
quid 20
rah 20
riga 20
rini 20
sche 20
sman 20
ted 20
ttle 20
yang 20
yev 20
yum 20
▁'' 20
▁0.2 20
▁187 20
▁1909 20
▁1985 20
▁1990 20
▁219 20
▁221 20
▁28 20
▁299 20
▁35 20
▁3500 20
▁75 20
▁89 20
▁AK 20
▁Aviv 20
▁Berliner 20
▁Bold 20
▁Bright 20
▁Canadian 20
▁Carp 20
▁Chrysler 20
▁Ci 20
▁Cook 20
▁Coro 20
▁Donald 20
▁Dutch 20
▁Eli 20
▁Empire 20
▁Fab 20
▁Farm 20
▁Finns 20
▁Fire 20
▁Fish 20
▁Fran 20
▁Front 20
▁Gabriel 20
▁Gala 20
▁Gene 20
▁Home 20
▁January 20
▁Joseph 20
▁Mich 20
▁Petra 20
▁Piano 20
▁Plant 20
▁Price 20
▁Putrajaya 20
▁Qarabağ 20
▁Sharif 20
▁Stock 20
▁Tampere 20
▁Tel 20
▁Torino 20
▁Vale 20
▁Virtu 20
▁Wet 20
▁Youth 20
▁baj 20
▁bro 20
▁cele 20
▁front 20
▁kailan 20
▁production 20
▁sal 20
▁series 20
▁shall 20
▁subsidi 20
▁tapi 20
▁vermi 20
AGE 19
ations 19
by 19
sit 19
wr 19
▁Airbus 19
▁Crew 19
▁Eindhoven 19
▁Jama 19
▁Kir 19
▁Linn 19
▁Spring 19
▁address 19
▁latin 19
▁postal 19
/30 18
0.00 18
08 18
10000 18
2.3 18
3.1 18
3000 18
4.9 18
41 18
488 18
5.7 18
5000 18
6.6 18
608 18
684 18
696 18
739 18
772 18
83 18
888 18
Ja 18
TV 18
asha 18
baan 18
iensis 18
kryp 18
lise 18
mán 18
nca 18
nem 18
opter 18
power 18
rese 18
sema 18
serve 18
stadt 18
tam 18
top 18
turing 18
wärts 18
yr 18
ys 18
zie 18
ä 18
ünde 18
▁02 18
▁114 18
▁178 18
▁180 18
▁1914 18
▁31. 18
▁42 18
▁Adelaide 18
▁Beni 18
▁Boer 18
▁Broadcast 18
▁Bus 18
▁Carles 18
▁Carra 18
▁Che 18
▁Condi 18
▁Cottage 18
▁Dari 18
▁Defender 18
▁Dig 18
▁Excellence 18
▁Fox 18
▁Fu 18
▁Gard 18
▁Giovanni 18
▁Guardian 18
▁Jong 18
▁Juha 18
▁Ken 18
▁Kuala 18
▁Kwa 18
▁Larry 18
▁Lumpur 18
▁Magistr 18
▁Manu 18
▁Melaka 18
▁Ministry 18
▁Neu 18
▁Nur 18
▁Oro 18
▁Puigdemont 18
▁Reality 18
▁Roll 18
▁Run 18
▁Sachsen 18
▁Scotland 18
▁Spa 18
▁Stalin 18
▁Stephen 18
▁Stockholm 18
▁Tamil 18
▁Tra 18
▁Vic 18
▁Viktor 18
▁book 18
▁cause 18
▁chill 18
▁dark 18
▁drie 18
▁gula 18
▁horse 18
▁judge 18
▁land 18
▁leng 18
▁loin 18
▁oy 18
▁pre 18
▁short 18
▁sli 18
▁soy 18
▁stories 18
▁tax 18
▁television 18
▁tender 18
Ord 17
bab 17
linder 17
place 17
rf 17
▁Budapest 17
▁Schä 17
▁Sha 17
▁cy 17
▁dis 17
▁genus 17
▁na 17
-03 16
-2 16
-27 16
-8 16
142 16
150 16
2- 16
279 16
392 16
463 16
495 16
550 16
592 16
670 16
685 16
744 16
771 16
798 16
836 16
895 16
Aug 16
Ex 16
PAC 16
PG 16
Port 16
ami 16
az 16
badi 16
bian 16
bre 16
ctor 16
drome 16
ien 16
ilo 16
imo 16
key 16
kh 16
ki 16
lling 16
mas 16
ok 16
pot 16
rop 16
rust 16
set 16
sor 16
tage 16
technic 16
tesse 16
ub 16
ven 16
win 16
zze 16
▁112 16
▁144 16
▁147 16
▁167 16
▁1908 16
▁1911 16
▁1972 16
▁2. 16
▁2011- 16
▁21 16
▁24. 16
▁28. 16
▁290 16
▁74 16
▁76 16
▁Adnan 16
▁Anthony 16
▁Arm 16
▁Arnhem 16
▁Bari 16
▁Bass 16
▁Cher 16
▁Colour 16
▁Concert 16
▁Detroit 16
▁Dua 16
▁Eva 16
▁Faro 16
▁Fisher 16
▁Geno 16
▁Helmut 16
▁Herald 16
▁Hussain 16
▁Jah 16
▁Jeff 16
▁Ji 16
▁Keyboard 16
▁Lamb 16
▁Len 16
▁Maine 16
▁Mam 16
▁Marius 16
▁Match 16
▁Mog 16
▁Mother 16
▁Nikola 16
▁Patriot 16
▁Paz 16
▁Pengu 16
▁Philippe 16
▁Provincial 16
▁Puig 16
▁Round 16
▁SN 16
▁SVE 16
▁Sanders 16
▁Simon 16
▁Sánchez 16
▁Tren 16
▁Uk 16
▁Vaj 16
▁Val 16
▁Vala 16
▁Velo 16
▁Water 16
▁Web 16
▁Wind 16
▁Z 16
▁brown 16
▁chili 16
▁condi 16
▁events 16
▁given 16
▁ket 16
▁often 16
▁pas 16
▁river 16
▁rupiah 16
▁ut 16
▁venue 16
nd 15
rix 15
▁April 15
▁Aste 15
▁Win 15
▁christ 15
▁government 15
-36 14
0.7 14
03. 14
112 14
156 14
464 14
484 14
5.6 14
507 14
54 14
67 14
678 14
79 14
790 14
AM 14
Al 14
ESA 14
Ni 14
Po 14
TEC 14
ab 14
ania 14
anne 14
archi 14
ayat 14
chy 14
cker 14
enburg 14
engine 14
geria 14
gro 14
ika 14
illi 14
ky 14
mine 14
mira 14
mpia 14
ntino 14
ora 14
owi 14
rst 14
stein 14
tec 14
tiku 14
tin 14
und 14
uri 14
vine 14
wick 14
zii 14
▁0-3 14
▁1.8 14
▁111 14
▁158 14
▁17. 14
▁1964 14
▁3- 14
▁48 14
▁Abu 14
▁Alessandro 14
▁Are 14
▁Arma 14
▁Barisan 14
▁Baron 14
▁Berlusconi 14
▁Beth 14
▁Bible 14
▁Bola 14
▁Bro 14
▁Cell 14
▁Chap 14
▁Chelsea 14
▁Chișinău 14
▁Classic 14
▁Cour 14
▁Culture 14
▁Câ 14
▁Diego 14
▁Does 14
▁Elect 14
▁Fi 14
▁First 14
▁Gary 14
▁Gil 14
▁Hea 14
▁Henry 14
▁Hul 14
▁Independen 14
▁Japanese 14
▁KY 14
▁Kaduna 14
▁Kali 14
▁Kat 14
▁Kedah 14
▁Kemp 14
▁Kilo 14
▁Kim 14
▁Leiden 14
▁Leon 14
▁Libya 14
▁Lie 14
▁Lion 14
▁List 14
▁Low 14
▁Ly 14
▁MD 14
▁Marcos 14
▁Moldova 14
▁Mon 14
▁Mun 14
▁Mö 14
▁Nawaz 14
▁OR 14
▁Olimp 14
▁Oy 14
▁Pak 14
▁Palm 14
▁Philips 14
▁Pi 14
▁Prince 14
▁Pérez 14
▁René 14
▁Rosa 14
▁Rus 14
▁Sant 14
▁Segunda 14
▁Sheikh 14
▁Silvi 14
▁Son 14
▁Sp 14
▁Staff 14
▁Studies 14
▁Sulaiman 14
▁Sweden 14
▁Tapi 14
▁Trots 14
▁Valo 14
▁Vec 14
▁Vigo 14
▁Wa 14
▁Westminster 14
▁Zahar 14
▁bomb 14
▁colour 14
▁folk 14
▁groups 14
▁home 14
▁raised 14
▁ster 14
▁sugar 14
ernes 13
uld 13
▁Anadolu 13
▁Regina 13
▁airport 13
▁cost 13
▁hub 13
▁parts 13
▁publication 13
▁voyage 13
-24 12
-30 12
/25 12
1-3 12
168 12
360 12
4.5 12
476 12
569 12
6.2 12
69 12
735 12
805 12
96 12
ABI 12
American 12
Ant 12
Australia 12
Brit 12
Ce 12
Count 12
Michel 12
WB 12
Z 12
arreta 12
bashi 12
berg 12
bra 12
cules 12
dia 12
fo 12
godi 12
halo 12
har 12
head 12
hle 12
hman 12
hne 12
ird 12
kav 12
kaz 12
klasse 12
kä 12
lania 12
lanta 12
läinen 12
mb 12
mena 12
mons 12
mood 12
nah 12
onio 12
ovač 12
owski 12
pis 12
por 12
pt 12
rino 12
sim 12
stitu 12
stone 12
ten 12
tensi 12
tiva 12
tov 12
tre 12
tron 12
tta 12
téri 12
visor 12
zil 12
▁1- 12
▁1080 12
▁141 12
▁1700 12
▁1872 12
▁1896 12
▁19 12
▁1939 12
▁1952 12
▁1953 12
▁1961 12
▁2002 12
▁3000 12
▁33 12
▁410 12
▁5- 12
▁5000 12
▁59 12
▁9. 12
▁Amateur 12
▁Anand 12
▁Antonio 12
▁Asociación 12
▁Ata 12
▁Aula 12
▁Barry 12
▁Bel 12
▁Blank 12
▁Bunga 12
▁By 12
▁Carlo 12
▁Chapel 12
▁Charlotte 12
▁Chris 12
▁Cold 12
▁Combat 12
▁Disney 12
▁Drog 12
▁Edward 12
▁Ferguson 12
▁Fit 12
▁Franco 12
▁GA 12
▁Gale 12
▁Gordon 12
▁Grave 12
▁Gábor 12
▁HA 12
▁HAL 12
▁HE 12
▁Hat 12
▁Head 12
▁Hill 12
▁Hora 12
▁Horse 12
▁Inter 12
▁Jar 12
▁Jean 12
▁Jin 12
▁Khalid 12
▁Kiss 12
▁Kuba 12
▁Lam 12
▁Liga 12
▁Light 12
▁Llo 12
▁Luis 12
▁Marie 12
▁Miguel 12
▁Mis 12
▁Motion 12
▁Movement 12
▁Much 12
▁Music 12
▁Observa 12
▁Ort 12
▁Pat 12
▁Patel 12
▁Pick 12
▁Pictures 12
▁Plastik 12
▁Polonia 12
▁Puerto 12
▁Quattro 12
▁Qui 12
▁Rica 12
▁Rich 12
▁Romano 12
▁Roosevelt 12
▁Roque 12
▁ST 12
▁Spel 12
▁Studios 12
▁Universal 12
▁VA 12
▁Vladi 12
▁Wein 12
▁ad 12
▁cep 12
▁craft 12
▁cu 12
▁cuba 12
▁dollars 12
▁duo 12
▁general 12
▁peso 12
▁sister 12
▁straight 12
▁system 12
▁Annie 11
▁names 11
▁offered 11
▁own 11
▁weight 11
-23 10
-28 10
/22 10
0-1 10
0.8 10
00 10
002 10
1.2 10
145 10
188 10
1961 10
2.6 10
204 10
250 10
265 10
3-5 10
348 10
350 10
4.1 10
456 10
5- 10
539 10
571 10
66 10
734 10
91 10
AJ 10
AMA 10
AS 10
B 10
HA 10
HE 10
HP 10
J 10
La 10
NZ 10
Qu 10
ah 10
ament 10
ang 10
arth 10
atto 10
bale 10
book 10
cht 10
cka 10
cked 10
dale 10
dija 10
dome 10
dyk 10
ering 10
esque 10
estro 10
eth 10
fred 10
fu 10
his 10
hri 10
hydrat 10
há 10
ines 10
istic 10
ix 10
izo 10
kih 10
lari 10
lls 10
mere 10
mmer 10
nda 10
neo 10
nia 10
nique 10
nist 10
pari 10
pha 10
razil 10
rib 10
río 10
schap 10
sins 10
spor 10
steroid 10
tro 10
trus 10
vil 10
virus 10
wa 10
wi 10
wyn 10
yaz 10
ù 10
Ş 10
▁1.1 10
▁142 10
▁161 10
▁166 10
▁170 10
▁1868 10
▁1878 10
▁1929 10
▁1947 10
▁1948 10
▁1967 10
▁1978 10
▁2014. 10
▁22 10
▁270 10
▁3.5 10
▁330 10
▁4.0 10
▁4500 10
▁53 10
▁55 10
▁6- 10
▁62 10
▁73 10
▁83 10
▁AM 10
▁Abe 10
▁Aceh 10
▁Ambient 10
▁Ander 10
▁Anni 10
▁Basketball 10
▁Bologna 10
▁Brasília 10
▁Brian 10
▁Castro 10
▁Clan 10
▁Colin 10
▁Colli 10
▁Comput 10
▁Computer 10
▁Corporation 10
▁Danish 10
▁Democrat 10
▁Deput 10
▁Dyna 10
▁ED 10
▁Eis 10
▁Esta 10
▁Gas 10
▁Ge 10
▁Ger 10
▁Group 10
▁Guan 10
▁Guara 10
▁Have 10
▁Honey 10
▁Horn 10
▁Hungary 10
▁Husk 10
▁Hé 10
▁Kai 10
▁Kazan 10
▁Ker 10
▁Kurd 10
▁Lamborghini 10
▁Legion 10
▁Let 10
▁Lewis 10
▁Liberal 10
▁Line 10
▁Little 10
▁Machine 10
▁Major 10
▁Manager 10
▁March 10
▁Melbourne 10
▁Mes 10
▁Mest 10
▁Mobil 10
▁Mora 10
▁Mussolini 10
▁Numa 10
▁Ní 10
▁OB 10
▁On 10
▁PC 10
▁Palla 10
▁Pap 10
▁Place 10
▁Point 10
▁Power 10
▁Prague 10
▁Research 10
▁Ring 10
▁Rob 10
▁Route 10
▁Rubi 10
▁Sadiq 10
▁Sanat 10
▁Sapi 10
▁Serbia 10
▁Shin 10
▁Sob 10
▁Song 10
▁Sta 10
▁Stadion 10
▁Victoria 10
▁Vienna 10
▁Warto 10
▁Yong 10
▁Zaragoza 10
▁Zor 10
▁admira 10
▁department 10
▁du 10
▁fin 10
▁fish 10
▁instrumental 10
▁par 10
▁pea 10
▁pl 10
▁science 10
▁vocal 10
▁İstanbul 10
bert 9
lott 9
▁Edmund 9
▁Hui 9
▁Jerry 9
▁Max 9
▁Ord 9
▁Volkswagen 9
▁administrative 9
▁bir 9
▁last 9
▁motto 9
▁unit 9
-06 8
-5 8
06. 8
114 8
125 8
173 8
1969 8
372 8
377 8
4.6 8
4000 8
443 8
609 8
653 8
7.9 8
765 8
8.2 8
858 8
887 8
989 8
999 8
ADO 8
ATI 8
BI 8
CT 8
Du 8
ID 8
Na 8
PS 8
PT 8
SET 8
Sy 8
TH 8
XC 8
aga 8
anum 8
aria 8
bha 8
bon 8
cata 8
cor 8
court 8
ct 8
dique 8
divi 8
dze 8
ell 8
ffe 8
fine 8
fun 8
gala 8
gano 8
garde 8
gua 8
hale 8
hin 8
hod 8
hok 8
hub 8
ite 8
ive 8
lam 8
lb 8
lianza 8
line 8
lä 8
mell 8
meri 8
mie 8
mit 8
mos 8
mu 8
my 8
nga 8
nici 8
osi 8
ox 8
pal 8
pat 8
penda 8
publish 8
rk 8
rs 8
shot 8
sie 8
ska 8
sv 8
tak 8
thema 8
tics 8
tis 8
tors 8
ts 8
verti 8
wał 8
zia 8
zo 8
áil 8
ärt 8
ère 8
ía 8
▁00 8
▁102 8
▁121 8
▁130 8
▁1921 8
▁1937 8
▁24 8
▁3.0 8
▁31 8
▁32 8
▁64 8
▁80 8
▁925 8
▁AA 8
▁AS 8
▁Alliance 8
▁Ambros 8
▁Angela 8
▁Arif 8
▁Avant 8
▁Baj 8
▁Benedict 8
▁Bone 8
▁Book 8
▁Bridge 8
▁Bush 8
▁CE 8
▁Cam 8
▁Campus 8
▁Canyon 8
▁Chili 8
▁Chung 8
▁Clari 8
▁Comic 8
▁Cuba 8
▁Cur 8
▁Dou 8
▁Drake 8
▁Em 8
▁Eugen 8
▁Fair 8
▁Fir 8
▁Futbol 8
▁Gates 8
▁Gradu 8
▁Haag 8
▁Harry 8
▁Hoga 8
▁Holding 8
▁IV 8
▁Jamie 8
▁Je 8
▁Johnny 8
▁Kapit 8
▁Kas 8
▁Kell 8
▁Key 8
▁Kho 8
▁Limited 8
▁Link 8
▁MB 8
▁Maya 8
▁Mechanic 8
▁Medium 8
▁Merkel 8
▁Militar 8
▁Milo 8
▁Mitchell 8
▁Mo 8
▁Mona 8
▁Najib 8
▁Ore 8
▁Out 8
▁Page 8
▁Palace 8
▁Perse 8
▁Philip 8
▁Pir 8
▁Popular 8
▁Portugal 8
▁Pot 8
▁Properties 8
▁Pure 8
▁Radio 8
▁Rally 8
▁Rapid 8
▁Razak 8
▁Rede 8
▁Rick 8
▁Rox 8
▁Ru 8
▁Samuel 8
▁Scr 8
▁Society 8
▁Sof 8
▁Soul 8
▁Spo 8
▁Sr 8
▁Stor 8
▁Str 8
▁Study 8
▁Su 8
▁Ta 8
▁Top 8
▁Trade 8
▁US 8
▁Ud 8
▁Var 8
▁Violet 8
▁Wars 8
▁Wood 8
▁Zak 8
▁basketbal 8
▁behalf 8
▁chief 8
▁cruise 8
▁design 8
▁discovered 8
▁ex 8
▁fat 8
▁ma 8
▁mas 8
▁meal 8
▁men 8
▁opp 8
▁pick 8
▁profession 8
▁rector 8
▁rib 8
▁structure 8
▁Éireann 8
EAT 7
int 7
kler 7
row 7
▁Ibiza 7
▁Kill 7
▁absolute 7
▁appearance 7
▁astronaut 7
▁film 7
▁magnitud 7
▁notable 7
▁product 7
▁project 7
▁protein 7
▁sa 7
▁senator 7
▁work 7
-32 6
-52 6
07 6
153 6
233 6
248 6
304 6
345 6
438 6
469 6
50 6
6.5 6
64 6
672 6
682 6
686 6
784 6
9.9 6
BL 6
CY 6
DL 6
Ge 6
Mer 6
No 6
SK 6
SV 6
Sha 6
Unione 6
WD 6
and 6
angka 6
arrow 6
art 6
aw 6
bau 6
baz 6
cati 6
class 6
distri 6
dod 6
dori 6
dow 6
drive 6
dy 6
ecta 6
flo 6
foni 6
form 6
garri 6
gnu 6
gui 6
hard 6
heer 6
hic 6
hockey 6
iche 6
igante 6
issement 6
iyah 6
kala 6
ković 6
lan 6
log 6
mal 6
mba 6
meer 6
milla 6
mini 6
mon 6
mper 6
mpo 6
ning 6
nis 6
olo 6
org 6
our 6
ped 6
post 6
rahan 6
ri 6
rina 6
second 6
stedt 6
trag 6
tut 6
uk 6
ut 6
vajo 6
wl 6
zio 6
ño 6
şə 6
▁177 6
▁1865 6
▁1891 6
▁19. 6
▁1965 6
▁2.4 6
▁2012 6
▁214 6
▁230 6
▁234 6
▁340 6
▁93 6
▁Aber 6
▁Administrator 6
▁Andersson 6
▁Andreea 6
▁Anwar 6
▁Astro 6
▁Basi 6
▁Belgrad 6
▁Benjamin 6
▁Books 6
▁Bou 6
▁Brut 6
▁Bry 6
▁Bă 6
▁CR 6
▁Camp 6
▁Christopher 6
▁Decora 6
▁Delfi 6
▁Division 6
▁Dušan 6
▁Fantasy 6
▁Favorit 6
▁Gerais 6
▁Germania 6
▁Gi 6
▁Gian 6
▁Glass 6
▁Gori 6
▁Gustav 6
▁Hab 6
▁Hon 6
▁Hot 6
▁Iran 6
▁Jamal 6
▁Joachim 6
▁Jordan 6
▁KA 6
▁Kami 6
▁Kap 6
▁Kel 6
▁Kend 6
▁Klub 6
▁Kota 6
▁LA 6
▁Les 6
▁Lin 6
▁Luz 6
▁Mao 6
▁Mauri 6
▁Minas 6
▁Mind 6
▁Minnesota 6
▁Mu 6
▁NA 6
▁Naka 6
▁Niger 6
▁Norbert 6
▁Norway 6
▁Oleh 6
▁Owen 6
▁Pesca 6
▁Portland 6
▁Provide 6
▁Publisher 6
▁Putin 6
▁Qas 6
▁Rafael 6
▁Retro 6
▁Revolution 6
▁Rod 6
▁Rund 6
▁Sama 6
▁Sami 6
▁Satellite 6
▁Sch 6
▁Schön 6
▁Shri 6
▁Territorial 6
▁Theresa 6
▁Tiger 6
▁Tri 6
▁USA 6
▁Vladimir 6
▁Well 6
▁Ze 6
▁bed 6
▁distributor 6
▁fate 6
▁he 6
▁literature 6
▁movement 6
▁remain 6
▁representativ 6
▁scrap 6
▁spare 6
▁stage 6
▁theatr 6
▁voice 6
▁von 6
▁~ 6
▁Á 6
▁× 6
+ 5
Business 5
iant 5
rar 5
system 5
ux 5
▁Far 5
▁Giro 5
▁Josef 5
▁Kennedy 5
▁Media 5
▁Tech 5
▁maximum 5
▁mayor 5
/19 4
/20 4
102 4
116 4
123 4
229 4
301 4
42 4
434 4
573 4
6.9 4
61 4
637 4
7.6 4
73 4
755 4
77 4
81 4
867 4
9.7 4
:// 4
> 4
Centr 4
Con 4
EMI 4
Eng 4
ICE 4
LK 4
PN 4
Pol 4
President 4
SB 4
TE 4
TW 4
Ur 4
World 4
agoa 4
aka 4
aki 4
alaba 4
ario 4
berry 4
bie 4
bler 4
cre 4
di 4
diens 4
eer 4
eh 4
enko 4
ett 4
fe 4
firm 4
flower 4
ges 4
gia 4
gos 4
gov 4
han 4
heat 4
hoor 4
http 4
iga 4
ill 4
illas 4
ire 4
ium 4
ius 4
ken 4
kkaus 4
lander 4
lk 4
llis 4
loo 4
mand 4
modern 4
ost 4
phon 4
play 4
prop 4
qui 4
rari 4
rle 4
rov 4
rovi 4
send 4
shi 4
sive 4
spi 4
sti 4
stick 4
stre 4
tan 4
team 4
tz 4
ubi 4
ugh 4
ugu 4
usi 4
via 4
viy 4
wana 4
ws 4
www 4
ß 4
ú 4
▁0.5 4
▁04 4
▁1.0 4
▁1.7 4
▁1200 4
▁140 4
▁156 4
▁184 4
▁1875 4
▁189 4
▁1925 4
▁1944 4
▁1949 4
▁1960 4
▁1968 4
▁1973 4
▁2.5 4
▁2003. 4
▁25. 4
▁470 4
▁6. 4
▁63 4
▁7. 4
▁720 4
▁800 4
▁9001 4
▁950 4
▁96 4
▁< 4
▁AD 4
▁Admiral 4
▁Ahora 4
▁Alle 4
▁Aman 4
▁Amazing 4
▁Andreas 4
▁Anne 4
▁Anth 4
▁Bal 4
▁Bank 4
▁Baptist 4
▁Barcelona 4
▁Bart 4
▁Basil 4
▁Basket 4
▁Bernard 4
▁Bir 4
▁Brenn 4
▁Bruce 4
▁CD 4
▁Carl 4
▁Cas 4
▁Cau 4
▁Celsius 4
▁Chuck 4
▁Compostela 4
▁Cre 4
▁Dark 4
▁Deb 4
▁Defense 4
▁Dro 4
▁Ec 4
▁Een 4
▁Electronic 4
▁Ethiopian 4
▁Ever 4
▁Exchange 4
▁Eye 4
▁Forest 4
▁Fost 4
▁Friends 4
▁GROUP 4
▁Gear 4
▁Gem 4
▁Haar 4
▁Helle 4
▁Hockey 4
▁Hoofd 4
▁Hugo 4
▁Illustr 4
▁Industrie 4
▁Jesús 4
▁Kash 4
▁Kate 4
▁Kid 4
▁Lucky 4
▁Madeleine 4
▁Malik 4
▁Maro 4
▁Masa 4
▁Mat 4
▁Met 4
▁Movie 4
▁Mug 4
▁Muhammad 4
▁October 4
▁PAS 4
▁PR 4
▁Palacio 4
▁Pay 4
▁Petrol 4
▁Phil 4
▁Progres 4
▁Quin 4
▁Rafi 4
▁Raj 4
▁Ralph 4
▁Regi 4
▁Rice 4
▁Romani 4
▁Romero 4
▁Saint 4
▁Santiago 4
▁Schu 4
▁Schul 4
▁Scot 4
▁Session 4
▁Slav 4
▁Sper 4
▁Swe 4
▁Tada 4
▁Tall 4
▁Tea 4
▁Tehran 4
▁Ukraine 4
▁Valentin 4
▁Valor 4
▁Vei 4
▁Vice 4
▁Vit 4
▁Vo 4
▁Wang 4
▁Wasser 4
▁Wellington 4
▁Wir 4
▁Ye 4
▁auto 4
▁bod 4
▁chance 4
▁college 4
▁corn 4
▁din 4
▁dollar 4
▁factor 4
▁failed 4
▁fritt 4
▁function 4
▁gem 4
▁impact 4
▁juris 4
▁local 4
▁made 4
▁other 4
▁pad 4
▁percussi 4
▁round 4
▁speaking 4
▁ste 4
▁tempore 4
▁trainer 4
▁w 4
▁Ž 4
ained 3
gress 3
ncy 3
of 3
▁Boz 3
▁Iron 3
▁att 3
▁classifica 3
▁fre 3
▁governo 3
▁libra 3
▁minimum 3
▁patron 3
▁rooms 3
▁vote 3
/24 2
337 2
367 2
37 2
467 2
6) 2
792 2
800 2
Bu 2
GM 2
Ka 2
QA 2
QE 2
ag 2
als 2
anno 2
brook 2
eria 2
ert 2
eti 2
fest 2
gé 2
how 2
ionis 2
iten 2
law 2
leigh 2
lich 2
lov 2
mil 2
ness 2
nett 2
non 2
odon 2
og 2
outlook 2
oval 2
pad 2
pah 2
person 2
pping 2
quin 2
sol 2
tele 2
tó 2
veld 2
width 2
zar 2
▁06 2
▁14. 2
▁1885 2
▁1935 2
▁2007 2
▁22. 2
▁325 2
▁9- 2
▁ASC 2
▁Auckland 2
▁Bird 2
▁Bla 2
▁Chocolate 2
▁Competi 2
▁Danes 2
▁Drew 2
▁Dw 2
▁Economy 2
▁Eisen 2
▁Europe 2
▁Finn 2
▁HAR 2
▁Happ 2
▁Haz 2
▁Heinrich 2
▁Heli 2
▁Hugh 2
▁Johannesburg 2
▁Julius 2
▁Kevin 2
▁Kh 2
▁Kings 2
▁Kirk 2
▁Law 2
▁Lond 2
▁MAT 2
▁Metro 2
▁Mi 2
▁Mil 2
▁Mountain 2
▁Oak 2
▁Officer 2
▁Pa 2
▁Padang 2
▁Politic 2
▁Rap 2
▁Slu 2
▁Sony 2
▁Swa 2
▁Tap 2
▁Til 2
▁Tourism 2
▁Trip 2
▁Warner 2
▁arro 2
▁child 2
▁colon 2
▁developer 2
▁distribu 2
▁down 2
▁eis 2
▁employer 2
▁failure 2
▁field 2
▁la 2
▁most 2
▁parti 2
▁professional 2
▁ranking 2
▁school 2
▁similar 2
▁stadium 2
▁university 2
▁website 2
afi 1
ore 1
▁Bianca 1
▁fossil 1
▁literar 1
▁metre 1
▁player 1
▁rank 1
madeupword0000 0
